[PAD]
[UNK]
[CLS]
[SEP]
[MASK]
!
"
#
$
%
&
'
(
)
*
+
,
-
.
/
0
1
2
3
4
5
6
7
8
9
:
;
<
=
>
?
@
[
\
]
^
_
`
a
b
c
d
e
f
g
h
i
j
k
l
m
n
o
p
q
r
s
t
u
v
w
x
y
z
{
|
}
~
¡
¢
£
¥
¦
§
©
ª
«
®
°
±
²
³
´
µ
¶
·
¸
¹
º
»
¼
½
¾
¿
×
ß
æ
÷
ø
œ
ƒ
ƥ
ǁ
ǝ
ȼ
ɩ
˙
ͻ
α
β
γ
δ
η
κ
λ
μ
ρ
ς
σ
τ
ϕ
ϯ
ϵ
а
б
и
р
с
я
ҫ
ӕ
؛
–
—
―
‘
’
‚
“
”
„
†
‡
•
․
…
′
″
‹
›
⁴
⁵
₁
₄
₅
₈
€
℅
™
⅓
⅔
⅕
⅖
⅗
⅙
⅛
⅜
⅝
⅞
⅟
←
→
−
≈
≤
≥
⌑
┴
■
□
▲
△
▶
►
▼
◆
○
●
◼
★
☆
☐
☑
☻
♥
♦
♫
✓
❖
ﬁ
ﬂ
##r
##o
##m
##i
##f
##e
##y
##a
##v
##l
##n
##s
##■
##t
##c
##u
##g
##d
##h
##x
##b
##z
##j
##p
##k
##5
##2
##7
##1
##8
##6
##0
##9
##w
##4
##3
##q
##©
##£
##−
##⅝
##®
##°
##½
##⅞
##¾
##ﬂ
##⅜
##⅛
##¥
##±
##⅓
##æ
##º
##ﬁ
##α
##œ
##¢
##™
##€
##λ
##ø
##¼
##ƥ
##ɩ
##ӕ
##⌑
##²
##ǝ
##¸
##ȼ
##ǁ
##♦
##►
##μ
##ª
##γ
##★
##ϕ
##˙
##┴
##´
##ς
##●
##❖
##℅
##♥
##✓
##¹
##□
##ß
##⅙
##β
##₁
##⅔
##ҫ
##¦
##σ
##ͻ
th
the
##er
##on
##en
##at
##ed
##in
of
##es
##or
##ti
in
##nd
##is
to
##al
##ar
##an
##ou
##as
##ing
##it
and
##ent
##ic
##ec
##re
that
##ro
##ion
##tion
##el
##le
##id
no
con
re
##ce
##ur
##st
de
be
##il
is
wh
su
##th
cou
for
co
##pp
was
as
##ment
on
st
pro
##ant
##ation
##ri
##ac
##se
##ly
it
##ain
an
or
##ir
##ve
##mp
not
##ad
##ter
app
by
##ut
##end
##rt
##ate
##im
court
##ff
al
##ith
##ol
##ver
at
ac
##ow
##ig
##ay
##ess
ex
he
##ud
with
this
sh
19
##ab
##ch
se
##ul
def
##ted
dis
##ther
##us
##ge
##am
##os
##ence
la
##ere
##ld
his
##ich
par
##tr
##ers
##ts
##ty
##ity
pl
##qu
##vid
which
ch
ha
defend
we
defendant
##per
en
##rom
pr
##ell
there
from
un
##ase
ad
##for
##mm
##ue
comp
##ard
jud
##igh
ag
cl
res
le
rec
so
tri
##ect
##ould
##ated
had
state
##and
ne
##ary
##uc
##act
##ill
plain
##iv
##pon
tr
have
##ust
trial
##able
##tiff
##est
plaintiff
2d
und
cons
##au
##me
mo
do
ar
##un
cont
any
##ied
##ie
are
under
case
##if
##ance
dec
evid
##all
##ord
##cl
##min
##ree
##ection
##ak
comm
##00
its
stat
per
evidence
all
##gh
were
such
appe
##ight
##ause
##ort
coun
sub
##ra
##od
##um
been
##aid
ab
##ure
law
ass
qu
judg
##ive
off
would
##der
##ot
##ber
fa
##ally
other
judgment
jur
##ict
but
if
acc
proper
##aim
has
##ip
rel
am
##esti
inter
##em
her
##iss
##ition
claim
int
##ound
requ
may
upon
fin
appell
gr
tim
##ough
##ision
##lo
##lic
##ag
##fore
pres
##ial
##age
##et
##red
bo
##tit
one
ob
ind
##ous
pur
pre
##ade
appellant
##ose
sp
##ties
testi
bec
act
##ice
appeal
##ason
when
did
see
contr
li
##out
ins
##ations
##ely
will
##ach
##fter
imp
att
##tic
time
##ish
said
er
him
##ens
##wn
##om
##oc
est
##ib
##ame
they
##erson
order
##ey
emp
reason
rep
##ign
made
el
##enc
##str
inc
##tions
##tain
iss
##ist
##oun
##anc
again
##ute
exp
##ans
car
10
##ments
##gu
##ile
##so
cir
after
##iz
char
##iled
aff
she
property
##ged
pe
##ved
their
##ia
##ding
##mit
person
fact
because
##ven
##oll
##over
whe
cor
##loy
also
##ory
mat
supp
##clud
ques
against
tw
11
##ond
only
whether
rem
##ution
me
##ine
##ies
can
provid
pay
sec
199
who
jury
op
##ider
ser
au
employ
ref
198
##led
disc
mar
##eral
##ore
leg
action
##op
##sel
##mon
##iew
part
##ath
##we
##tice
cond
should
must
##ici
pri
12
##ual
##ited
reg
##ars
##ee
record
fir
right
##ility
section
200
consider
err
##form
18
##ack
##ors
deter
##tive
##ress
##ting
##cep
where
##oss
##miss
##oin
mr
contract
distr
alle
##ap
determin
inv
show
before
us
##eld
##any
mon
##ise
##ll
##ub
pol
id
motion
rev
##ving
out
how
could
question
sup
##ense
dep
ter
del
den
##tition
own
present
cas
##ule
shall
##ork
##ire
gen
##ness
##ceed
##orn
two
these
##ollow
##fied
##lain
district
follow
oc
fur
##ased
cer
spec
##ass
##one
first
same
inj
add
wr
argu
##ake
fac
##ef
kn
ye
##thor
does
20
set
##ount
13
197
petition
over
##our
##ong
rule
ro
author
##ail
circ
##struc
##ings
fe
new
br
##ild
##irm
here
##mony
judge
##ific
##ult
man
##ever
without
##iction
##ide
filed
testimony
##vers
than
des
proceed
##ected
agree
statute
them
some
##ended
##res
##son
##ok
company
work
ver
conc
##its
requir
eff
county
counsel
gu
##ative
opin
issue
##ax
grant
cri
error
constit
##de
pub
##emp
child
##ject
go
15
pa
opinion
##aring
val
##lig
purp
dir
##ating
##old
land
more
offic
then
proc
further
found
however
complain
day
into
di
lo
##mitted
parties
##av
bet
matter
##ank
held
sent
insur
injur
trans
14
##enti
sal
##rib
decision
##ward
rece
public
affirm
within
common
##ious
appro
wit
prov
##orney
attorney
##ered
respon
suff
##ident
dr
vi
defendants
##inc
cle
dam
cause
review
board
##lish
##urn
serv
neg
##ecess
applic
bel
conf
##ast
##ages
facts
##io
##ph
##clus
writ
giv
##art
poss
##ween
##ability
ple
tax
code
que
therefore
##ical
nor
interest
know
##ission
general
##ances
between
our
witness
ed
##ome
##man
##ention
excep
16
##ible
provision
corp
states
##of
party
ph
ben
stated
plaintiffs
##ife
##ater
commission
##ession
##ently
17
accord
##osition
being
##ges
##gin
what
##uct
form
lim
##ily
city
##und
##og
clear
viol
use
##used
fail
min
jus
##uring
cases
##ued
enter
es
estab
conv
##ace
##to
term
necess
mer
##osed
finding
occ
super
ga
testified
##ought
##ates
includ
##tim
support
both
ct
agreement
juris
tak
sch
##oint
equ
##ful
amount
##ized
polic
si
##arr
while
about
hearing
##ither
##iver
25
those
21
establish
rul
##ature
##til
you
##ke
##ents
##ex
stand
##ived
##ower
disp
ca
bank
22
alleged
23
##hip
circum
##uted
30
benef
##icient
3d
ap
##te
##ember
##urr
exec
##not
por
prob
circumst
required
bro
ground
reasonable
years
ret
notice
jurisd
##ency
during
prior
sep
dem
find
##ather
##alth
##fer
##ights
##ained
claims
##way
##ite
second
sign
denied
inform
ord
supra
##ective
given
condition
##less
##ys
doc
inst
bar
ten
##ities
well
damages
estate
suit
subject
##ton
assign
##ular
each
based
##ator
##ised
24
dismiss
prev
make
##are
diff
entit
conclud
require
trust
##ner
##ros
subst
bus
##clusion
policy
##elle
oper
##isl
due
sa
##ten
sc
jurisdiction
even
invol
specific
thus
paid
##ks
direct
legisl
partic
rights
obj
##istr
str
##ning
effect
jo
##struction
constitution
regard
allow
contro
purpose
pros
##tif
##ying
purch
certain
cannot
three
statut
neglig
27
##uary
##asis
tit
cred
following
##ons
196
26
dist
prop
refer
circumstances
##ger
ext
gover
28
summ
united
exam
sale
corpor
mc
pen
cost
##sequ
authority
bu
award
##sw
decl
legal
##ately
##ief
provided
##iness
affirmed
com
fr
sin
##jud
##bt
verd
29
entitled
cal
##thing
##erc
according
charge
##uty
##ock
appelle
##ick
##iti
bill
##reat
##other
thir
000
##resent
up
##anti
##hn
ev
coll
##ues
##lied
ve
addition
answ
injury
med
insurance
until
recover
title
fav
##ross
civ
statement
##uit
now
compens
used
verdict
contin
31
express
princ
##up
bur
ju
another
princip
business
##reme
indic
admin
favor
##les
40
thr
necessary
complaint
ful
ra
##ends
commit
having
govern
fed
##ian
##ove
##lement
##ouse
good
prot
##ft
revers
through
conclusion
officer
resp
sufficient
##unc
call
##though
##ep
defense
##ient
although
result
payment
lan
##ior
application
note
mis
##arm
supreme
div
##ood
##gation
respond
##be
pass
hol
discre
examin
conduct
##tiv
year
date
taken
say
##ested
ori
power
test
guil
##ked
money
accident
represent
##minal
either
duty
##elf
prosec
abs
main
amend
loc
rend
ordin
entered
death
argument
proced
50
perform
purs
provides
since
av
discretion
asser
sever
possession
##icial
return
##iod
fund
origin
imm
period
##duc
differ
month
##ange
mak
value
failed
hand
ann
##ren
four
##ost
ala
##ody
might
provisions
##crib
place
granted
##ital
tex
failure
courts
justice
liability
real
##wealth
commonwealth
##br
cust
concer
corr
mort
adv
##ably
sm
priv
view
administr
cit
42
mater
num
proceedings
criminal
rele
##ises
##ink
sentence
compensation
##air
##ado
##artment
dri
##ind
ever
##oses
police
195
appeals
high
service
##fe
cap
32
##ret
eng
presented
summary
sust
oh
sur
##ier
wife
apply
dev
mortg
received
35
sus
##ry
appear
deed
warr
##by
##ew
sett
veh
way
##den
vehic
##ants
##ool
##tained
defin
federal
##uss
negligence
above
##unity
exist
consideration
##ley
mrs
41
john
considered
never
45
33
particular
appellee
201
standard
##uck
corporation
terms
##ison
prac
limit
substanti
prec
objection
children
sim
demand
##ually
##acion
enti
third
##tor
read
##ified
proof
ohio
34
point
oblig
193
credit
bre
material
aut
prem
home
need
bl
sti
declar
36
cover
non
deliver
##king
word
hold
pursu
##arily
38
##reed
follows
##hib
circuit
39
wa
personal
##rip
37
##mission
days
determine
langu
43
00
take
##iam
answer
dou
language
sentenc
##use
guilty
information
44
46
##ending
let
##ees
exper
##ump
##ta
##unic
opp
sum
process
civil
##ices
basis
back
accep
pat
jun
sy
erred
cre
exerc
office
control
unless
impro
bri
##ects
##ational
47
attemp
##raud
194
cr
costs
##own
house
separ
##ivid
51
cross
artic
##vey
##aining
assess
##omp
##urred
##la
account
interp
red
argues
##ibility
ear
comple
##pri
los
school
construction
##ential
##wise
original
##enses
final
properly
jan
##atory
belie
conviction
clearly
em
less
long
##ins
government
reasons
##oid
stree
bond
hus
##orted
six
##alf
##band
plead
49
warrant
48
52
mem
remand
offense
vic
regul
department
give
60
sit
request
##tific
resul
sat
husband
special
instruc
192
pursuant
adop
decree
care
discuss
statutory
##crip
issues
55
buil
appellants
du
reversed
intent
53
##gan
subsequ
five
conn
54
medical
owner
exc
fi
cour
employee
fraud
mortgage
life
class
phys
##ves
end
think
several
charged
sol
brought
individ
inf
vehicle
tbe
mean
correct
judicial
prejud
holding
##ob
56
contends
proceeding
relief
june
##ached
##ned
respect
susp
##bit
respondent
legislature
march
permit
written
enfor
##ilar
rules
entire
left
violation
witnesses
##ided
##ug
employment
loss
##raph
acts
fees
secur
report
victim
course
arr
##ogn
established
position
involved
apr
full
address
recogn
##ledge
lic
##ging
january
including
##ests
ii
##mber
##cribed
amendment
provide
##sy
determination
employer
##allen
similar
amended
satis
cent
rail
laws
brief
##stand
mother
issued
61
termin
##uch
intended
thereof
identi
my
admitted
dan
april
rather
persons
arbit
article
forth
road
valid
##2d
##vant
letter
acqu
wis
services
plac
ordered
building
57
appears
##bers
##ental
debt
determined
crime
beh
appropri
##ead
july
asked
previous
every
individual
##ures
true
##tal
prof
##oci
purposes
##uation
fair
et
arbitr
##ech
burden
exception
examination
just
challen
street
subs
##li
stock
superior
##ural
later
different
##go
father
gre
most
##edi
like
##gr
fil
plan
sou
number
aug
nature
making
58
turn
told
benefits
constitutional
va
##co
191
col
##arge
claimant
officers
findings
mur
autom
59
agreed
vol
petitioner
rendered
nothing
##ister
knowledge
very
william
light
done
##ems
plea
remed
otherwise
##isted
conclude
sell
##owa
december
octo
##after
october
##self
ma
##unction
##eed
below
sept
##ser
resol
called
town
iowa
##orts
65
except
accordingly
##ument
nam
##tern
##arch
62
august
though
var
open
fam
unc
discover
water
##acter
produc
##unt
75
sought
respons
questions
resid
art
fl
manner
convic
##action
63
hos
lou
##ired
##als
70
purchase
post
se2d
##fy
vir
##idav
affidav
ste
september
applied
design
66
substantial
investi
restr
smith
simp
anal
agent
##ize
certific
##ada
mill
associ
det
prim
dra
##cc
##row
shown
febr
tre
additional
##verse
himself
##ault
character
transfer
mand
caused
discl
line
sustained
intention
prove
##xim
80
nove
november
##ony
grounds
ir
##utor
qual
doubt
regarding
gener
benefit
name
overr
lev
##endent
fire
claimed
convey
took
february
sug
custody
enforce
mod
emph
64
##iving
lea
assignment
agency
##land
words
100
ruling
ms
committed
actual
concluded
lease
specifically
##iff
##tin
consent
##ension
obser
exercise
munic
municip
##lin
concur
dece
67
sold
occurred
contrary
statements
caus
##tical
##ising
refus
rob
relations
down
lack
put
las
far
noted
##augh
wal
deg
penal
premises
##val
constr
hosp
limited
ge
itself
applicable
herein
procedure
louis
liti
prom
68
fel
meet
dismissed
71
##tified
decided
treat
search
lab
months
allowed
actions
##ership
neither
##xt
municipal
69
safe
penn
raised
separate
90
mal
former
infer
mor
liable
contention
assist
requires
##try
appar
##ker
##atter
disch
explain
##istent
72
##ains
##ished
##oting
##ences
members
##ativ
initi
change
cited
meaning
charges
abuse
bound
remo
statutes
employees
prohib
automob
omitted
asse
immedi
##pr
practice
refused
hospital
insured
price
murder
##ured
contained
last
wrong
consequ
##iana
##imin
avail
##ler
##opp
##edent
west
showing
known
side
##aged
pun
##acy
interpret
file
appellate
offered
shows
##uce
merely
signed
##ady
carri
cop
##equ
##titution
degree
added
73
bal
##utes
##yp
total
went
deal
##leg
indict
conditions
##tle
authorized
motor
##eck
want
fif
ill
81
##aff
means
##ling
##ket
##ists
har
overrul
##ope
##umption
still
clause
submitted
77
appropriate
85
requested
##riz
tenn
wee
##ont
##ones
syst
injuries
obtain
bey
##van
extent
filing
doctr
intro
agg
76
marri
next
don
##acts
least
believe
##ament
ordinance
adjud
##ification
deceased
south
license
##uff
##ender
sher
feet
##cer
relevant
diss
run
portion
uni
74
principal
much
furn
fore
beyond
78
automobile
##ines
family
delivered
contrib
settlement
instruction
##reg
area
ariz
contemp
##ication
##missible
arrest
190
placed
##ointed
##road
##elop
event
gave
health
##standing
prevent
vac
subsequent
##bur
83
lien
louisiana
concerning
affidavit
whole
82
hab
referred
84
included
expert
generally
##app
absence
emphasis
##gations
met
##enty
look
reference
##ble
##ced
##osing
exceptions
execution
obtained
cur
determining
89
many
ess
88
farm
##lvan
##gress
##omm
crim
una
##lvania
imposed
doctrine
indictment
executed
##ne
##eric
truck
pennsy
95
distrib
maintain
accept
notes
pennsylvania
connection
activ
96
requirements
purchas
lot
breach
mont
succ
matters
harm
highway
fix
##bert
reasonably
mil
##par
sl
91
92
hour
97
##lem
##con
87
occup
##asion
railroad
79
sex
para
free
chan
ele
instant
superv
directed
##rav
funds
remanded
develop
##ght
##lict
86
related
thereafter
appealed
blo
your
sw
taking
old
##ele
parish
##fact
get
obligation
import
continu
others
der
nat
##acted
brown
unre
whom
##itable
protection
income
lit
incident
inqu
gar
93
therein
danger
##fully
##kn
rate
vis
force
allegations
94
incre
system
drug
##yer
doll
local
##ene
indep
relationship
##ery
count
requirement
99
labor
described
records
fo
equity
damage
189
pleas
wil
##lies
recovery
aside
saw
improper
johnson
##ark
##gether
security
private
privile
americ
##isk
##rial
physical
fee
division
coverage
north
son
granting
opport
knew
returned
denying
##ify
short
operation
##amp
##ters
dispute
fall
permitted
expenses
grand
##eff
payments
##her
prosecution
exclud
admission
decisions
##ale
peop
##umed
heard
joint
conflict
excess
##ulation
ur
##cription
denial
available
prejudice
volunt
geor
98
instructions
instr
deb
compet
trib
sheriff
great
cler
taxes
behalf
election
proposed
convicted
twenty
adj
##port
faith
##ximately
repe
actually
merit
##ready
mere
##enced
##agraph
legislative
introduc
il
500
already
latter
treatment
aver
mention
##osure
exemp
##ysis
##hol
continued
void
previously
prod
receive
##ering
##ana
lower
interpretation
demon
owned
lands
##els
chap
people
##ash
delay
divor
2000
demonstr
##ring
half
maj
among
particip
performance
served
opportunity
1983
##clusive
typ
going
gas
demurr
sales
minor
##sa
adequ
together
analysis
##eless
mist
##ane
williams
remedy
paragraph
became
##ield
##hold
kill
##law
recognized
duties
arm
stip
ease
near
instead
##ole
none
distinc
texas
jones
constitute
injured
interests
##ship
depos
came
##ah
##rie
pow
##itch
official
complainant
finally
##gue
existence
include
argued
##jected
simply
union
##rup
moved
entry
##ari
##ulated
situation
transaction
remain
indicated
##tively
hom
avoid
partn
object
administrative
factual
disability
possible
sure
##ounts
##ott
major
various
seeking
sugges
fully
##tory
accused
why
moreover
ordinary
##mb
mind
##ico
adopted
##eng
yet
mas
accordance
leave
##emn
##rit
presumption
approximately
best
##itive
##esse
errone
awarded
war
ow
##uments
##timate
##anch
suffici
##iding
national
litigation
immediately
driver
meth
limitations
named
men
##ante
fut
decedent
expressly
come
assigned
soc
injunction
##acity
2001
chief
admit
##ially
employed
prosecutor
loan
##sh
erroneous
temp
says
cu
dollars
1993
association
occasion
age
##sey
failing
altern
##ape
applying
##cion
times
##ames
clerk
1984
perman
signific
become
##ization
supported
tried
##ience
##olog
##bor
bring
able
directly
share
fourth
##ama
problem
head
incor
guard
sentencing
te
whose
1975
principle
##ume
accomp
insuff
##ically
##ille
room
##igu
##ware
##ga
overruled
tribun
contracts
1996
1997
1999
illeg
body
enc
hard
factors
liqu
##eep
intern
custom
pending
conduc
future
1991
appellees
deem
##ined
1992
##ido
giving
188
sing
virgin
divorce
spe
##aughter
##ull
2002
testify
1995
financ
offer
ul
recomm
authorities
effective
independent
##uced
##umb
certificate
##side
risk
##going
1998
weight
##ened
1990
relied
##orth
construc
hund
thereto
reser
manu
##tify
thereby
doing
merits
theory
##know
heir
citing
tort
broad
demurrer
aggrav
##gn
pain
1994
hundred
1986
##cil
manif
pot
shar
##gram
1985
standing
exhib
1989
virginia
instrument
102
##ote
market
101
##oted
violated
##rimin
1988
complete
acknow
sen
writing
##jo
##ases
attempted
fal
##itation
##men
##with
##imum
1982
community
1987
existing
187
once
##tices
protect
equal
method
approved
2003
passed
##ford
accepted
assessment
parent
jack
informed
##cent
mental
improve
harr
1978
face
##erg
conced
tribunal
1981
trav
american
##ilities
diffic
attempt
1980
serious
safety
wat
##ham
##oper
created
##state
secret
commissioner
trustee
arbitration
settled
too
regulations
copy
marriage
engaged
explained
1979
##ask
insurer
##ude
makes
educ
page
seems
proposition
defined
dav
wood
subsequently
##uting
absol
member
reach
negligent
appoint
chapter
repair
tele
extr
cash
##ading
unable
discovery
##que
##ators
quoting
reverse
alone
##raw
construed
penalty
definition
unlaw
##wh
congress
convers
stri
scope
curr
thom
discussion
james
##tah
eight
2004
stop
##tingu
indust
##well
prison
util
fri
success
bor
rent
client
performed
sho
direction
104
103
tract
utah
manufact
gun
observed
kind
rest
controvers
pred
oral
withd
interven
tal
check
mut
##ona
resulting
insufficient
status
orders
capacity
located
followed
anything
fre
infl
equitable
requiring
##theless
probation
thereon
firm
##ias
asserted
prel
##lan
week
assault
concern
motions
dismissal
pleadings
comply
rich
##lor
##ien
punish
##more
precl
release
applies
unreason
necessarily
alab
book
obv
esc
investigation
dated
sole
stating
alabama
felony
appointed
principles
4th
prelimin
discharge
prepar
owners
##essee
residence
keep
##venue
mentioned
purchased
balance
subd
consistent
outside
substance
goods
meas
response
presence
challenge
##kins
insp
natural
front
da
##por
110
##uer
##ium
esp
hel
white
##bted
council
##tee
##ancell
2005
driving
probable
##ck
refusal
threat
##vo
elec
##enth
##ville
proceeds
thomas
attorneys
enforcement
sued
relating
job
exceed
waiver
document
brother
profession
single
sexual
robber
manifest
default
guar
physici
suffered
oil
engine
jer
thirty
##oup
jj
inquir
little
miss
##gl
organ
ascer
juven
investig
##itiz
foot
arising
percent
instit
foregoing
possess
sel
mach
arri
##wards
##ata
asserts
confer
step
parte
impr
expressed
pertin
105
program
120
privilege
misc
substantially
track
dom
1977
preliminary
township
refl
york
element
lik
ber
essential
##he
assistance
bad
reached
majority
testator
poin
davis
1976
east
administrator
deposition
remaining
mich
air
discip
speed
begin
introduced
receip
significant
documents
##tial
fixed
black
sections
##izing
purchaser
obvious
wid
involving
citiz
discussed
affect
##umer
##ida
##vation
106
##aled
suppress
decide
stud
acknowled
powers
##ina
committee
sk
appeared
history
##itor
attack
##idge
pertinent
##int
##do
partnership
false
rejected
indeed
miller
ren
ded
eval
##amb
depri
##oti
illegal
##idad
##aking
##iting
termination
timely
assets
workers
guarant
mul
tempor
regular
inquiry
##atever
travel
incons
##ectively
whatever
##pa
seen
##cy
hon
iii
access
communic
##lying
alter
01
##encia
##ipp
objections
list
conclusions
pray
2006
apparent
large
past
flo
juvenile
alleges
##ength
##ral
attach
wash
##isp
##ces
##iance
counts
admissible
creditors
parents
##ancy
##aries
##ero
##ograph
away
considering
heirs
permanent
uncons
##selves
argue
join
reve
providing
resulted
##oning
hereby
store
waived
implied
##liance
transport
1st
acted
##ett
robbery
##ston
restric
things
##ix
mcc
counter
pan
youn
acting
111
##orse
influ
##ext
##gun
along
##icated
pers
##uction
##na
capital
approach
transcrip
important
##rupt
jurors
amb
ho
##lier
##ensive
lear
negoti
satisfied
##ang
acquired
electr
submit
fails
competent
declared
##nia
covered
died
controversy
compan
acres
186
financial
traff
como
supervis
hands
##opped
##oth
liber
##iento
benefici
citation
##ados
disposition
##ipment
afford
self
etc
door
arguments
##icion
green
strict
hear
approval
112
apparently
adequate
cali
began
group
##ino
got
##pay
deemed
validity
confirm
##ateral
blood
using
elements
desp
##ando
bonds
107
seven
president
##uth
represented
2007
##ously
1974
attached
109
limits
virt
render
113
proved
close
surr
mag
identif
solic
distingu
errors
##ways
ownership
contractor
limitation
108
vo
hill
removed
contempl
##ris
max
calc
imprison
##uel
##oke
uns
##utory
##ron
bas
discrimin
river
entirely
##ington
reti
results
##att
situ
incorpor
stay
ce
conven
alleging
jackson
unreasonable
living
concerned
sched
offenses
existed
##aps
cho
resident
lar
unf
##andon
regulation
exists
judgments
meeting
serve
strong
adverse
contended
dischar
unn
unlawful
conducted
solely
aud
surv
points
immunity
delivery
refusing
##utions
##let
ley
secretary
##licit
##inson
forec
##iation
juror
1973
examined
themselves
wea
standards
tec
relation
115
divid
disag
hours
small
##eas
cod
night
center
##orari
preser
contend
administration
greater
##yn
ocga
resolution
declaration
##aska
type
bankrupt
phil
##ca
##ha
##rew
wall
instance
##rog
pac
guid
responsibility
114
125
inval
2008
lost
jr
ineff
responsible
sustain
sil
vend
seem
nine
continue
secure
reviewing
sentenced
showed
sanc
contains
##right
attention
##ivision
tell
compliance
primary
compar
invalid
inn
manage
mary
earlier
qualified
##urb
initial
frank
assignments
camp
comment
happ
context
##onduct
believed
##ocation
rp
identified
hall
collect
stor
indemn
sense
certi
absent
operating
interpre
misconduct
lie
inde
##eness
certainly
ven
##field
##tenance
reb
##entiary
raise
pret
young
indicate
knowing
alco
cut
gl
##uing
##gia
122
##iter
instructed
fraudul
califor
guilt
commissioners
subdivision
prescribed
abandon
forfe
certified
##iture
advised
traffic
alternative
california
##ards
furnish
level
yes
sound
transcript
bid
##een
pag
working
seek
##ercial
jersey
const
##atively
consp
factor
concurr
zoning
nevertheless
gra
furthermore
##ortion
fell
tenant
##mer
specified
##ams
tend
espec
payable
install
##rop
##iar
few
alcohol
rein
##teen
train
assessed
118
certiorari
probate
unnecess
items
ability
121
dangerous
##eful
constituted
supplement
116
discovered
gross
credibility
##tis
119
maintenance
distribution
function
exclusion
fault
##ma
allowing
teleph
##ric
addressed
creditor
director
answered
suspension
wom
debtor
subsection
plant
##view
whol
georgia
117
around
debts
arres
exclusive
env
185
affected
mutual
setting
education
este
ba
conveyance
inconsistent
techn
punishment
inher
convictions
difference
development
underlying
temporary
invest
##ively
clar
professional
indicates
nar
policies
imprisonment
##ift
##ito
procedural
reject
star
alaska
commercial
register
master
##fect
contest
aware
##ney
thing
treated
citations
2009
##aker
##erous
dil
manag
lsa
examp
1972
##iary
##aylor
##utive
##sych
##urch
obligations
ham
careful
allegation
coal
hen
##urer
150
##withstanding
daughter
##umber
bed
produced
causes
enact
longer
dissent
activity
complained
##stood
sour
drawn
notwithstanding
understand
physician
likely
##leans
boy
san
quoted
recorded
orleans
location
conveyed
phot
appointment
02
adjust
registr
hence
124
collateral
reported
withdraw
unp
barred
deposit
favorable
jose
##iber
length
##ez
help
130
assemb
description
psych
intox
##wood
##line
bin
##thern
##urs
equipment
rptr
receiving
paper
##rix
123
removal
indebted
compell
##bre
consequently
dest
pos
carrier
##usion
project
fifth
thought
justify
mid
ou
##ario
##ann
uniform
memor
defect
enough
receipt
becom
voluntary
hum
unconstitution
crimes
convinc
something
bod
unnecessary
deny
##room
shares
necessity
potential
corporate
econ
legally
##amus
##ald
ruled
tod
correctly
parole
##ics
understood
field
aggravated
lead
always
disagree
emb
##ple
exch
hous
objected
##ides
amounts
incurred
station
ascertain
representative
eas
management
shot
hay
prepared
remained
belong
duly
completed
influence
econom
##mpt
pleading
##mo
multi
current
ent
maintained
inference
litig
po
seeks
martin
bankruptcy
conspir
mandamus
pick
cat
disreg
##nel
move
changed
norm
caso
weapon
contain
struck
lots
truth
##reh
fit
church
panel
esta
300
create
##atives
reversal
##izes
mass
wilson
taylor
bell
129
iv
numerous
aid
weeks
reviewed
disciplin
##rec
premium
discharged
##ives
constitutes
carr
accr
##roy
forecl
particularly
internal
activities
univers
uph
draw
impair
undisp
##iety
##holders
dead
option
pi
trustees
adoption
despite
excessive
reading
transferred
##oked
representation
disregard
arrested
dismissing
prejudicial
##mente
##ury
##set
leaving
exercised
##ev
##cles
apartment
charles
sufficiently
produce
coven
procedures
low
128
telephone
126
sn
rational
petitioners
thous
product
##aine
designated
relator
absolute
250
miti
affirmative
assum
else
learned
thousand
cooper
131
conce
prefer
anderson
assembly
127
prevail
fundament
deliber
lew
assume
taxpay
george
undisputed
increase
harris
##encies
example
struct
moore
net
surety
contrad
lay
recommend
transportation
##otion
furnished
##lished
2010
recons
robert
assumed
offender
railway
lee
##pe
detail
thomp
1971
fid
defer
##ju
preced
##pective
legi
worth
disturb
revised
operated
unit
charter
contact
novo
##atic
lawful
ign
133
##rep
claiming
stopped
curiam
bills
materials
trade
##anced
##nings
doctor
1970
abused
miles
secured
treas
minutes
pip
wrongful
companies
reconsider
formal
substit
repeated
contempt
distinct
operate
extended
cf
occurr
assert
##ateg
134
irre
better
carried
sister
pp
difficul
excluded
commenced
patient
barg
undert
satisf
carry
dur
132
enacted
##ara
exact
tres
thompson
finds
##lling
examine
strike
fraudulent
guardian
expense
widow
base
impose
apel
agents
parts
confid
vested
chec
pleaded
##ept
arizona
corpus
mistake
drive
toward
##most
executor
owed
lawyer
equally
practic
judges
coc
03
collision
binding
##ordin
park
ineffective
##ients
partial
allegedly
conform
confession
##era
ball
cert
184
genu
ry
wanted
negl
exhibit
##ounting
david
late
##echo
floor
sugg
chancell
adver
allege
##ba
sufficiency
##adel
minimum
dro
explan
unconstitutional
afor
retain
##claim
columb
##hood
legislation
moving
##hab
industrial
presumed
chancellor
##01
ens
pointed
survey
effort
innoc
##vent
135
enumer
simple
mail
je
reports
##nes
wherein
##pl
##icious
consol
likewise
citizens
sand
##entially
amp
poli
promise
disciplinary
paying
early
pet
controlled
central
##phia
quot
##actions
deputy
##pass
seq
consist
##gers
justified
##ece
worked
washington
##idated
individuals
ultim
ambigu
recon
municipality
respective
reduced
compel
protected
morn
involve
voluntarily
dich
##inqu
ken
##burse
satisfy
understanding
wholly
violations
defective
emerg
ought
comb
rod
van
preclud
ey
experience
burgl
proxim
richard
clark
applicant
item
repl
jail
##ken
alim
additionally
virtue
adjudication
renew
measure
photograph
##eree
lived
urged
incomp
dissol
immediate
##upon
##ches
therefor
peace
governing
distinguish
problems
evalu
##icts
appra
turned
inters
136
weigh
expect
log
reim
morning
retire
cars
##adelphia
jeff
exchange
sche
cul
burn
foreign
teach
kept
philadelphia
running
##aded
phr
press
suggested
distinction
tennessee
remove
wind
##ena
agreements
##ov
##erce
alimony
ward
becomes
##ries
especially
electric
terminated
##rose
conceded
laid
dict
##inn
rad
lines
suspended
acknowledged
contra
containing
workmen
dilig
arti
implic
scene
improperly
##robor
stipulation
##bo
manager
proceeded
ut
137
designed
##enger
social
prima
rely
tor
remains
directors
mandatory
04
##ibly
2011
often
includes
##uance
atl
##represent
##join
dise
justices
married
pal
reads
warranty
lewis
challenges
vehicles
pere
cocaine
genuine
exemption
belief
prescription
arrange
demonstrate
##lex
accounts
##ounced
memorand
##apers
feel
play
misrepresent
disputed
cort
cand
products
ll
##come
seiz
parc
inad
omission
emergency
##isc
properties
##time
corporations
5th
concluding
hears
interview
arrived
##za
sentences
rebut
##aciones
events
allen
rico
05
led
impact
##ival
138
facie
supports
##iable
rout
183
king
instituted
indebtedness
extra
1968
##airs
marks
hot
##respon
joseph
attend
##ush
conspiracy
habeas
attachment
identification
##amente
similarly
needed
inapp
drugs
##aced
rental
marsh
estopp
almost
maximum
inspection
quite
cual
possibility
400
##ales
bir
patent
authorize
articles
stipulated
##utors
commerce
##cons
improvements
elig
ray
##ponder
persu
##berts
1969
regardless
overruling
preponder
##ucion
##sc
gives
180
##ourt
originally
receiver
evidentiary
mech
continuing
##endo
140
fifty
increased
ask
dealing
corrobor
flor
pec
estoppel
scheme
stats
extension
##rees
conversation
rates
##ador
site
ol
iden
hearsay
adopt
collection
pit
##bid
mari
trespass
taxation
##atement
arose
##haps
reliance
rat
avenue
perhaps
##clusively
acceptance
reasoning
##gery
bat
challenged
##ael
passenger
##qual
guidel
nu
disclosure
##iron
fine
retained
describ
across
haz
##from
tro
licens
revenue
arise
arises
distance
##aw
key
vers
lake
##inger
puer
##iced
appearance
assuming
##don
entering
answers
9th
liquor
prohibited
human
recovered
##agn
involves
##ism
cab
##cher
##mean
ante
discrimination
merch
ran
##ki
supplied
borough
mark
1967
affidavits
##esaid
fill
consequences
##tics
assertion
aforesaid
acre
southern
institution
bridge
probably
##ente
relies
advant
vote
enjo
interested
fer
explanation
crossing
certification
therefrom
frequ
recent
shortly
liberty
fish
##eman
160
##wer
##ground
notified
prohibition
##icide
names
gir
ing
wiscons
wisconsin
walker
establishing
proving
facility
streets
retirement
##ening
hers
listed
accur
remainder
suggest
issuance
news
transactions
territ
identical
mechan
intersection
disclosed
extend
relative
roy
difficult
governmental
paul
referee
2012
beneficiary
environ
unfair
vt
wages
vacate
hun
disab
disclose
levy
##rist
##ips
assistant
closing
advance
bag
destroy
controlling
fairly
bearing
administer
wes
quar
sir
recognize
cot
source
elect
didn
substan
honor
ordinarily
legitimate
ultimately
interrog
holder
cam
punitive
welf
wright
bow
political
trad
pled
neigh
detective
theft
correspon
environment
substantive
##udence
dispos
ford
scott
medic
mayor
##nal
forward
declaratory
lumber
rehe
explicit
beginning
welfare
permitting
causing
rear
profits
continuance
enjoin
##berg
##juana
requis
double
burglary
permission
stol
fundamental
surround
foreclosure
foc
squ
nev
null
marijuana
depend
economic
interfer
##iel
##pped
win
puerto
##lord
obtaining
##iciency
improvement
initially
elimin
suits
##mond
letters
##elve
##gg
operations
country
lane
imposs
usual
soon
1966
bodily
modification
forfeiture
memorandum
monthly
##rell
139
##aba
contemplated
##aria
respondents
ang
##eg
##eland
sixth
asserting
seized
roberts
twelve
card
salary
sue
box
facilities
concerns
182
collected
intentional
supplemental
##kin
permits
supply
##work
mans
mitig
acquit
efforts
rulings
landlord
willing
testif
changes
##ires
hy
disease
modified
commence
personally
sam
##vert
contractual
incorporated
expected
bear
coming
branch
machine
resolved
reimburse
supporting
range
parental
mir
gri
complied
difficulty
##iley
web
counterclaim
unli
arbitrary
vill
jurisdic
lessee
presents
pul
released
181
multiple
##anda
papers
##ato
plans
interstate
fifteen
##ression
famil
1965
asp
##bell
compe
columbia
forty
preponderance
carrying
killed
fue
bail
##ows
remedies
consequence
prin
pack
woman
##ster
seller
vacated
##uses
amendments
behind
141
defe
impe
production
selling
mart
corte
estim
behav
requests
##ounted
##ano
##utation
violate
relie
jurispr
precedent
prep
passing
##ios
rehearing
admitting
worker
stolen
sev
nos
06
indicating
condemn
narrow
correction
books
##oster
magistr
charging
func
mad
fig
officials
elected
##ea
phrase
151
##prac
##tra
awarding
##tification
emotion
seizure
hereinafter
born
attempting
responded
bul
color
sentencia
penalties
opinions
buy
utility
regarded
session
allowance
concep
guidelines
schedul
executive
146
225
uses
hereto
antic
bon
##tors
##employ
succession
proximate
inade
whit
covenant
sobre
##ette
##eces
exclude
inadequ
gro
##ii
spouse
resc
interpreted
henry
robinson
circumstance
hu
mob
vs
throughout
depart
armed
categ
attrib
rape
##no
marital
enjoy
behavior
ignor
ell
neglect
##po
disqual
##ifying
venue
michael
viewed
153
annual
eigh
wl
trail
bure
rise
##rote
criter
##meanor
signature
candid
vendor
##house
cla
questioned
live
144
170
adjudged
writs
hart
takes
sic
143
foundation
##icted
lawsuit
contributory
fourt
indemnity
wor
advantage
noting
imper
diagn
##verted
adams
154
2013
142
impossible
deeds
prospective
##head
proven
ot
taxpayer
##eny
##icio
buildings
171
##aken
##entions
insol
customers
145
##ropri
violence
sustaining
deduc
##az
resour
parking
sanction
##gment
shooting
foster
wrote
##imiento
quotation
quash
seat
securities
girl
reserved
herself
##member
##vin
superint
pree
remar
steps
##roll
##loc
##rick
205
obviously
society
pension
148
08
interf
canc
ros
cites
choice
lu
##cra
07
enactment
checks
##encing
exempt
garn
600
prompt
occasions
bureau
##ps
sixty
diligence
tending
misde
passage
149
deciding
1963
prejudiced
imposition
places
179
apart
##ination
abandoned
ke
retro
gold
vag
happened
compelled
expir
sets
anticip
version
##ology
university
gil
joined
connected
175
arguing
inferences
conclusive
satisfaction
engage
##asing
jen
separation
complainants
fiduc
##rogation
magistrate
##win
1964
cancell
recommended
##dle
friend
intell
##estic
recently
started
malprac
needs
identity
plat
malpractice
152
od
saving
die
##aves
reck
##ertain
expression
demanded
quality
anyone
155
knowingly
firearm
montana
147
suffering
unemploy
instances
##anto
inm
emotional
belonging
treasurer
propos
profit
chanc
ni
portions
harmless
advers
falls
surrounding
scr
modify
chancery
##bs
202
decreed
##ulo
09
founded
plus
effects
preceding
colle
refuse
trier
cole
thereupon
entity
primarily
complaints
##tract
complet
schedule
revocation
advanced
jefferson
developed
ultimate
engineer
##insured
##ifications
##ustr
##worth
lock
homicide
looked
somewh
respects
equival
231
situated
easement
staff
basic
161
occur
killing
convincing
homest
declined
##day
exha
confidential
works
strick
lesser
##ological
158
mitch
organization
##ories
governor
##icate
gift
entr
saying
remember
reflect
heav
top
whenever
retroac
closed
215
considerations
morris
absolut
resolve
homestead
background
casual
##wal
normal
##aul
mistrial
expiration
timber
##ols
recall
drove
club
flow
##iated
177
port
establishes
satisfact
prisoner
anti
oath
af
refers
##under
203
162
visitation
phase
##ilton
##da
insisted
occupied
##holder
partition
156
conting
consolidated
hur
opening
technical
##burg
structure
derecho
desire
experi
pertain
157
mex
borrow
dependent
ger
supervision
##atrix
terminate
165
governed
restrictions
forms
relying
disposed
directing
grow
wag
##ulate
apprais
eq
##illing
strictly
cook
housing
reckless
higher
roll
enh
possessed
jurisprudence
asking
cm
neighbor
afforded
parol
1953
adequately
conferred
dor
domestic
##rs
garnish
uncertain
registered
raises
restrain
footnot
prayed
perfect
inside
conflicting
subj
completely
fat
deprived
personnel
178
##ander
auto
stew
progress
210
##oura
##rd
thor
recommendation
batter
quanti
million
##iat
constructive
1961
hit
operator
wide
clean
identify
##ester
essentially
mitchell
intr
peti
participate
172
contents
tests
cast
promiss
ant
204
##kes
felt
hou
refund
inte
impeach
food
##vance
divided
##ste
plainly
comes
unj
international
1962
incompet
delinqu
positive
enable
##get
##vere
wish
accounting
211
publication
settle
##wa
supposed
touch
##opard
defects
demands
incap
reveals
##lie
moment
speak
solicit
syll
affairs
7th
purported
fence
dun
implement
promissory
pure
pop
investment
block
elev
unpaid
jeopard
citizen
malice
relates
restitution
areas
bay
upheld
cotton
chem
surgery
consc
usually
pod
reversible
testament
proportion
sitting
163
registration
announced
168
custod
##uez
evaluation
absolutely
reconsideration
##osite
syllab
wheel
baker
##off
ram
discretionary
##arse
173
valu
##ze
superintendent
relig
looking
slight
suggests
shipp
appearing
forum
##aterial
considerable
consec
##osis
resources
data
franch
warning
equivalent
phill
holds
jac
401
reinstate
testing
##iente
enforced
surf
remedial
nuis
irrele
warranted
integr
assumption
mitigating
##asm
mansl
sworn
fiduciary
analy
partner
syllabus
manslaughter
forced
average
232
unus
167
bd
barr
prevented
immaterial
defenses
pued
someone
213
bought
##tives
evans
##adas
208
peremp
169
text
leading
230
opened
##pper
suspicion
intend
##ounds
166
##tailed
parker
petitions
ly
docket
##eth
preclude
##missibility
alex
##akes
banks
##gom
lacked
meant
##td
executors
restatement
##bed
dwell
motorist
##uy
rehab
derived
1947
301
steph
164
adm
##terson
irrelevant
vide
1940
associated
reduction
1960
prud
try
leased
grie
##elson
prue
##itz
##ional
##atories
hazard
constructed
tender
reduce
159
brad
207
##elly
montgom
227
importance
##fort
florida
212
##ura
404
parcel
briefs
anim
capable
inadmissible
montgomery
territory
representing
enterpr
inspect
occurrence
intest
unemployment
hearings
opposition
mineral
##vereign
sovereign
liens
gall
##iles
opposed
severe
levied
disabled
tenants
waste
218
practices
206
reply
buyer
##rol
carter
##uest
##vention
278
mess
afterwards
representations
hyp
miranda
##ques
##aux
nearly
supervisory
driven
repairs
##rect
impar
confirmed
intellig
poll
objective
wells
rehabil
namely
waive
realty
misdemeanor
maintains
##istol
notic
inadequate
220
lod
role
published
stewart
verb
suc
1959
pretrial
skill
mel
earnings
mandate
176
hotel
western
campbell
liquid
##ago
##abl
arrangement
incorrect
##omin
swe
interference
hend
ordering
bargaining
##ourse
2014
##itude
##ivers
preserve
vent
pron
mining
##eenth
##non
victims
violates
steel
##tise
##mar
##anta
gray
substitute
1958
compreh
jurisdictional
##aging
depends
contentions
##itary
##ulative
ok
submission
discloses
##inois
brook
illinois
escape
licensed
representatives
fear
aggravating
precluded
deposited
admissibility
agencies
somewhat
imposing
emphas
experts
hut
216
##ula
savings
complains
carefully
contracted
mca
##ites
##cing
240
admits
royal
authorizing
1937
##tible
transp
brothers
##ern
cuando
sr
##ky
##antial
residential
allows
##ets
howard
partners
calls
valuation
performing
ment
classification
prescrib
introd
comments
whereby
habit
story
292
excepted
employers
battery
##unk
invent
224
retail
bringing
revealed
nav
insist
pursue
accrued
questioning
assessments
misrepresentation
nin
corner
nuisance
251
exhibits
demonstrated
307
6th
certificates
lat
403
evening
sanctions
1931
adjustment
mexico
suspect
rests
##inery
counties
speech
221
##arcer
casualty
aleg
arch
##times
repeatedly
##ica
views
presiding
sidewal
privacy
execute
surface
manifestly
1933
village
samp
destroyed
rock
##iring
han
##irect
route
contradict
rap
indicted
jointly
confined
stockholders
auditor
gard
grade
quarter
probability
reaching
cree
mobile
jurisdictions
incarcer
horse
##fill
frequently
turner
requisite
##asive
advice
definite
calculated
advertis
unusual
cau
whereas
visit
communications
800
trailer
174
eligible
motive
tot
clin
banc
practical
jeopardy
233
209
##ched
subpo
analog
402
carol
noticed
##com
reimbursement
morgan
introduction
houston
229
training
1951
franklin
formed
desired
##order
1957
russ
consumer
##where
detailed
gon
##nett
##kee
separately
ambiguous
sometimes
residents
hud
servant
hamilton
prueba
confine
boundary
clos
expired
relate
##bel
heretofore
approached
incl
unlike
comprom
functions
summons
defines
gone
break
spring
certainty
scheduled
1950
concurring
##itt
274
sums
im
domic
birth
##riety
clients
##tery
cattle
regla
privileges
requesting
##va
defeat
##ront
##utable
serving
mac
evident
inflic
270
reflects
grantor
eth
cro
spr
##atures
1925
217
##nell
##gar
350
fores
probative
##anied
phillips
gib
subcon
photographs
college
1949
fired
speaking
ped
familiar
##here
declare
##mos
keeping
broker
##igned
moot
involunt
gain
justif
ross
unw
219
christ
252
surviving
##ert
rand
bol
districts
parti
customer
##ream
franc
##echos
##ik
##icata
##orsement
constitutionality
kid
trou
##ores
annul
orden
dup
communication
1955
files
idea
waters
##bar
ti
contribution
1921
pistol
226
introduce
space
protest
interfere
annex
##iate
222
1956
threatened
undue
chatt
lind
intentionally
dissenting
shop
##ableness
marked
indication
goes
criteria
236
credible
breached
blue
wol
exclusively
variance
raising
completion
dog
dia
instruct
ordinances
schools
industry
circumstantial
arbitrator
bott
ascertained
214
situations
intestate
participation
stone
heart
wage
##ince
sud
223
bi
dispose
mortgages
238
242
nm
referring
psychiat
pipe
extraordin
nelson
juez
embr
1939
253
cy
extensive
negotiations
241
observe
8th
##rey
drink
active
maintaining
271
##asmuch
discipline
reasoned
exped
machinery
encoura
domin
respectively
##ining
lessor
##unct
260
##ommod
235
damaged
independ
unjust
prosecuting
261
1954
suggestion
attempts
selection
thorough
denies
spon
conversion
english
specifications
##ora
interrogatories
450
rodri
##mont
commencement
inasmuch
peremptory
grav
cancel
412
dig
assigns
bry
1952
ej
minim
##zo
443
##eli
##onged
##lay
correspond
negative
unamb
##istic
decline
245
auth
larg
marshall
cents
depositions
unambigu
234
suffer
##itional
rac
highways
dwelling
310
guaranty
build
##ots
accommod
vice
possibly
interloc
carl
ital
violating
ash
distress
opposing
built
##hr
inherent
ample
##ality
##aron
outcome
prosecuted
device
valuable
footnote
averred
claimants
construing
sci
nich
compelling
##ms
excuse
stage
really
accompanied
phone
##mes
411
edwards
affecting
striking
beneficiaries
expend
nov
detention
##vens
##ersed
replace
##licable
hypoth
subcontract
290
ach
suppression
innocence
preemp
bench
valley
placing
cra
prohibit
resta
sewer
selected
##phy
wc
mus
uninsured
##andez
bears
##ounded
america
planning
reform
tracks
demandante
approaching
##icating
##rel
mortgagee
copies
pend
cham
losses
228
precise
wire
254
##west
280
permissible
ps
##amiento
adult
##ians
sun
prevailing
##usted
##amos
ware
authorizes
justification
epa
luc
manufacturer
cum
##known
middle
restaur
##aneous
pitts
ready
246
satisfactory
injunc
bes
informant
effectively
convenience
nonetheless
creating
1932
cell
##ables
construe
lun
gonz
twice
bind
1935
traveling
302
tendered
establishment
affirmatively
manufacturing
homes
ditch
irreg
##uls
spent
mine
##nandez
indef
##abilities
466
admissions
desc
alien
advis
irregular
felon
bab
applications
individually
clock
chose
judici
501
##utrix
willful
pecul
griff
##zer
erroneously
263
testifying
adduced
259
##orm
fals
creek
248
##ita
purchasers
##oy
drain
race
misle
rendering
consult
dimin
rig
revision
freed
commitment
1929
##wl
disturbed
ali
##oned
275
contributed
ensure
peculiar
##rap
##ofar
perpe
294
capr
deference
239
ty
algun
##ista
determinations
255
impartial
##ancia
physicians
environmental
perpetr
declarations
ship
chemical
illustr
judicata
insofar
##amm
jacob
premiums
conference
277
bona
succeed
chris
alj
kir
haw
reasonableness
acus
promul
##jection
hat
deprive
373
rodrigue
conditional
towards
supersed
insolvent
extraordinary
##stein
confront
##ds
249
##ews
andrew
244
sudden
unknown
trying
interlocutory
560
shel
glass
stands
indirect
intervention
237
highly
247
unav
1923
##oner
243
constitutionally
kelly
257
291
ko
311
advise
272
303
321
1948
pertaining
correctness
recl
innocent
disputes
kent
##tious
dissolution
279
determines
##outh
broken
prepare
##ria
eighth
10th
##anger
holl
devise
russell
restricted
##author
concurs
fide
obligated
aggreg
##aling
apportion
incompetent
305
##the
opposite
stevens
enumerated
##erv
269
freight
262
##ration
##itated
700
assignee
focus
##lock
blank
condemnation
inches
resort
quantity
enl
totally
craw
306
rogers
discussing
hub
sons
pas
incon
264
inability
rodriguez
pier
lying
occupation
distinguished
1938
iron
lawfully
rejecting
convict
ris
roof
ta
256
1934
405
alia
limiting
acquittal
1930
replied
mcdon
cancellation
hugh
hac
affirming
##burn
explicitly
aqu
##authorized
issuing
bien
content
pages
exercising
supervisor
maryland
occurs
conducting
motiv
##uly
##zz
draft
dougl
##ota
era
##body
penit
268
##cia
##ulations
unauthorized
supervisors
tu
storage
##uter
bud
ep
bever
##terior
267
asi
273
1941
fred
impression
precis
restriction
pict
hired
265
##ades
treating
acquire
sea
piece
distribute
295
exposure
directions
disapp
contrast
objects
successful
inferred
implication
315
##feas
##iet
subpoena
##writ
readily
breath
religious
recurr
##orter
details
##rett
##soever
sick
harrison
indefin
moral
sidewalk
##igan
methods
##inder
mol
preparation
281
fisc
312
infring
##rete
torts
friends
regulatory
mccl
rents
##riet
rationale
guarantee
forbid
involuntary
##ella
lam
silent
eye
##mons
##ifies
assured
410
regularly
320
##idos
1927
##atically
reputation
285
study
signing
predicated
matth
urges
eventually
earned
##ecting
penitentiary
##enn
perce
induced
dix
impairment
warrants
prohibits
covering
promptly
exceeded
##iera
purely
stood
1936
510
juan
stra
ru
hereafter
fort
buck
451
today
yard
proff
intim
pool
fatal
266
nurs
nation
creates
##anged
save
raz
258
adjoin
309
tar
##veness
defam
series
excluding
subjected
calling
presum
##owner
knife
acquies
1915
##yers
mcm
##uits
lyn
436
dick
franchise
overt
cha
jul
bias
##cle
##oking
293
confusion
380
unlawfully
daniel
304
reed
achie
defraud
##avor
spir
prayer
cogn
merchand
inventory
intoxicated
384
consisted
mills
frame
estimated
awards
restaurant
dar
331
##itate
mun
define
propriety
entertain
##oms
stress
remarks
critical
##isting
surrender
crop
##ivided
table
caution
percentage
induce
##une
##ucc
accomplish
illness
boat
destr
rou
750
deficiency
##isa
women
horn
fourteenth
examiner
##ming
regulate
confinement
procure
pater
sund
discon
284
onto
cite
pacific
instruments
##orsed
unan
administered
1946
walk
walked
##yle
outstanding
tank
##ounce
##aster
complex
entre
minds
signs
fiscal
concrete
##rence
471
students
big
##veland
easily
##acent
abstr
nons
getting
dire
mode
289
glo
rh
student
504
harass
pulled
cinc
preference
francis
deleg
502
square
mile
fem
edward
fixing
351
window
ninety
carp
jour
inherit
425
convinced
contested
gul
distinguishable
repealed
receipts
placement
1945
tom
whatsoever
##encion
286
##iedad
teacher
assur
rose
earning
##kets
##igo
accion
presentation
dates
##aches
shif
282
dicha
size
1928
392
transf
notify
finance
288
##rich
341
largely
355
##ibilities
qualify
408
exceeding
exactly
compare
407
dos
recited
chance
##opping
commissions
powell
rom
incidental
##elihood
strip
concept
tion
speedy
391
sureties
roads
recip
appreh
collins
positions
challenging
283
340
watson
##aily
invoked
habia
inapplicable
sav
grantee
276
cleveland
violent
compromise
##bro
adjacent
amounted
313
causation
dealer
##rem
world
butler
406
contending
estates
wy
##engers
abandonment
##ivoc
##ulp
estopped
lies
sle
negligently
eliz
mcg
neck
les
undou
interc
tel
histor
accepting
330
reinstatement
##otes
alloc
414
undoubted
287
leon
cow
lieu
agric
parked
vig
loans
hor
houses
daily
examining
##tz
##ancing
proposal
pla
kr
disorder
draf
promulg
strongly
passengers
declares
##tiveness
merchandise
contractors
interpreting
membership
rehabilitation
441
gal
sort
ibid
declaring
##ox
specially
512
presump
##eller
sides
explaining
##bb
renewal
lights
priority
carolina
heavy
punct
convention
establ
reservation
1942
douglas
computer
enforceable
household
compr
agrees
avoided
11th
practically
trooper
319
utter
purport
308
lug
rub
adjudicated
delinquent
360
##erted
365
dicho
##weigh
uncle
vess
concurrent
dollar
##wide
estimate
senior
highest
dealt
investigate
diction
reduc
collective
classes
chic
440
arth
##olds
incrimin
belonged
pcra
cox
##emption
395
voir
490
cloth
##upp
preserved
##burgh
unanim
##antes
296
##orily
390
455
##che
associates
375
##ese
2015
obstruc
325
393
command
predecess
##umm
murphy
lacks
314
alexander
##dy
contacted
wcj
503
ambiguity
299
recognition
shoulder
##urity
unambiguous
##mann
420
lad
brand
poor
##loyd
475
nur
leases
##owed
efect
reinst
cities
newly
protective
entirety
offices
##eline
clo
types
##iday
366
organized
ways
nomin
fulfill
337
##inez
hop
accomplic
viz
hal
abog
taxed
adversely
413
beer
eighteen
##osa
procured
##iso
adjoining
529
permanently
committing
1926
##ectives
422
revoked
liabilities
##entif
##essed
addressing
361
presently
presume
bern
critic
appropriation
397
systems
military
346
overcome
restor
##wlth
weekly
units
garcia
##uous
grants
recording
##ansas
##urray
##hl
henderson
##ny
##ologist
507
cmwlth
indian
362
send
prosecute
anc
tire
expl
conflic
talk
italics
372
pon
1943
competency
415
significantly
periods
317
##gs
409
505
371
trouble
doctors
redemption
tra
taxable
514
469
threats
malicious
accus
suitable
421
continuous
unequ
511
aspect
divers
424
occurring
431
moder
avers
observation
prohibiting
470
430
##ueb
comprehensive
annot
mortgag
demanda
##ja
##mph
297
abr
##rawn
343
chev
552
voters
extingu
550
garage
476
figure
##exp
propriet
coleman
coerc
333
intercourse
rejection
demonstrates
map
inappropri
retroactive
1910
misapp
bargain
narco
vii
chicago
##yl
353
bailey
1917
364
restraining
##isition
evidenced
leaves
seventh
316
inferior
precisely
##rieved
298
388
enhance
renders
martinez
carriers
seriously
undivided
undertaking
defining
path
sources
merc
clay
puede
##enson
resided
jord
##anity
injunctive
541
banking
##ati
earn
reiter
370
math
clauses
##urally
surge
cruel
entitle
competition
342
##ailed
evidently
332
##elled
357
444
advertising
freedom
508
distributed
461
licensee
intoxicating
surve
389
fisher
473
##ucks
fuer
349
chain
returns
318
449
477
continues
347
seal
segu
walking
extending
codigo
435
532
pattern
ice
dictionary
322
mistaken
likelihood
believes
bis
roadway
vest
corn
442
460
##tt
essence
relieve
atlanta
legate
recognizing
sar
##roe
kim
participated
quit
physically
doe
481
432
383
##ountain
1913
authorization
spirit
530
agricult
328
municipalities
433
##paper
deliberate
confron
kenned
##inity
523
467
moneys
367
sympt
experienced
##atis
416
insists
preferred
successfully
spoke
445
perf
pad
boundaries
printed
386
bedroom
detri
consented
coup
hughes
brooks
contingent
approve
##born
ltd
434
apprec
lap
qualifications
##ocket
601
345
rested
493
417
attended
##ingham
manual
385
enterprise
crawford
462
concedes
debe
foresee
369
491
##ivan
educational
significance
##plus
##ka
watch
consul
900
vague
##acc
##itely
3rd
419
##ode
##fri
patients
expres
constituting
##graph
kennedy
perry
##nis
erected
elsewhere
abstract
reserve
##inal
519
canal
##ench
capricious
427
boards
326
rivera
consistently
##stone
gill
cong
327
##ulating
335
##lated
taxpayers
465
angel
imposes
##onent
##eston
start
pocket
detriment
consum
contracting
423
##oud
subsid
offers
323
447
##ucker
##gins
vernon
eleven
construct
haber
gord
wills
348
sull
stan
withdrawal
newspaper
368
conformity
378
attending
459
audit
358
repres
454
grievance
inquire
##utin
##han
stayed
candidate
tended
dent
1924
wel
tends
rese
undoubtedly
489
initiated
conclusively
expectation
larc
substituted
mix
344
accurate
##ifer
beat
verbal
##ompass
438
encompass
weak
354
hog
##icks
dela
owing
hip
bart
everything
assent
entities
##tile
conj
##osen
covenants
os
##ement
accompany
finger
352
##ulars
provider
withdrawn
rouge
334
329
1920
484
521
punctuation
adjudic
324
incidents
game
formerly
notices
##venues
387
implicit
baton
##ectiveness
materially
aust
##nity
lin
374
cru
risks
surplus
consisting
model
486
terry
437
474
severance
1919
strength
ended
thro
463
##aught
averments
recur
527
520
unavail
insanity
mi
surviv
articulo
418
warren
outweigh
456
513
endorsement
480
515
##ola
island
trip
338
448
468
richardson
jordan
barnes
cuy
petic
533
research
encoun
reliable
531
hunt
##fr
426
jenkins
377
rede
accomplished
larceny
numbers
509
advertise
fun
##abeth
signal
457
category
439
creation
attributable
##quis
##roc
##owners
untim
mason
minors
485
506
bia
336
aw
brings
##itan
quo
thres
fairness
##elity
cogniz
##ear
prong
flood
tb
vista
hechos
northern
339
closely
reyn
porter
represents
row
extreme
relinqu
##uate
fle
379
##low
eld
foreman
stores
therewith
accum
464
trials
446
senate
517
causal
forma
testatrix
segun
acquisition
429
energ
495
##antly
lope
reflected
peticion
detain
555
consists
promised
elizabeth
display
culp
394
llc
missou
sido
##aum
securing
operates
escrit
hernandez
lopez
ec
fight
enjoyment
376
452
483
christi
lawrence
summer
separated
independently
destruction
##mi
hi
498
measures
prices
drainage
ceased
##entic
398
knows
vary
381
persuasive
producing
hecho
laf
kin
orph
beneficial
clothing
complaining
patterson
tlie
##arry
facil
discontin
returning
428
bennett
mond
##igent
scrutin
##eno
analyz
anticipated
tur
ark
##istics
sullivan
burd
543
chosen
eligibility
pittsburgh
venire
allstate
trusts
brick
fuel
pero
##titive
adul
ya
##ns
jim
##vol
woods
testamentary
accomplice
conceal
afterno
delaware
switch
dall
ballot
359
prescrip
396
rice
shir
summar
mailed
senor
1911
corroborated
minute
dow
prudent
proofs
confidence
removing
hire
##ientos
399
successor
363
525
partes
utilities
382
fu
sens
yield
neighborhood
516
overrule
task
verdicts
uncon
573
shield
intervene
##umbr
subrogation
528
lifetime
551
particulars
inappropriate
institute
553
535
wanton
enjoined
522
549
colon
inheritance
consecutive
ninth
contributions
453
furniture
maker
assessing
reli
602
traditional
499
asks
om
##ressed
##amed
conscious
488
##ball
afternoon
larger
god
mes
hudson
609
reop
524
adopting
ij
minn
deficient
571
seventy
visited
donald
bros
handling
eases
497
choose
pursued
494
injus
radio
calculation
aggregate
impaired
##vely
tortfeas
remark
specify
tracts
fla
356
vendee
lawyers
responsibilities
1922
vacation
458
##vations
570
fash
exposed
nevada
482
population
respecting
neut
describe
496
472
gordon
riding
tie
479
526
##eder
appraisal
ron
mismo
##astic
fidelity
540
534
untimely
##angible
thereunder
conflicts
##unities
##minent
1944
478
gibson
obr
dish
concludes
attacked
amounting
fashion
solicitor
restrict
mortgagor
filled
holmes
voting
receives
minister
561
##af
female
interrogation
stamp
##iendo
tape
554
sunday
classified
dele
stab
retired
scientif
references
medi
restrictive
crow
542
492
farmers
barb
team
##lantic
##enda
therap
1907
corrected
combined
547
518
averment
commonly
hans
promote
love
monitor
538
symptoms
neces
discriminatory
mcdonald
rescind
ferc
involvement
conve
normally
kidn
extrem
surpr
gam
##aces
mot
hardship
liquors
dispro
employe
cumulative
487
describing
544
domain
elections
designation
neutral
548
turning
##ried
##oul
graham
towns
stricken
2a
##echa
presenting
habitual
retal
nurse
702
subjects
##oline
ton
tac
##dom
warehouse
545
stream
564
reynolds
tiene
##point
simmons
sharp
appoin
autor
610
##gical
honest
alteration
expended
spous
unrelated
##mother
meetings
paragraphs
guidance
grad
701
incumb
saf
residue
acusado
senal
##idation
drinking
strickland
anterior
transmission
rid
wound
instancia
treasury
##ai
chambers
indisp
misleading
programs
reinstated
courtroom
bequ
bald
reversing
atlantic
537
##mbre
##aped
546
esa
604
801
infant
##ders
1901
resolucion
lif
pressure
currently
guaranteed
##amin
gardner
ah
drivers
offering
gent
characterized
telling
confrontation
theories
mt
539
automatic
wallace
##tts
562
unequivoc
##alez
sanders
##lev
556
publish
altered
duplic
cues
encounter
ago
##enders
besides
realized
patrol
male
nrs
affirmance
##uity
threshold
taxing
furnishing
ahead
appealable
aun
formula
investigator
accidental
##ilidad
##esis
monroe
pounds
expand
hardly
combination
occupancy
574
##ils
assaul
##eron
applicability
tanto
credited
viewing
anton
shareholders
incarceration
##ativa
694
custodial
##amount
pueb
##ulpatory
frivol
gulf
interm
confronted
scar
nash
sab
mocion
serge
departure
travelers
searched
duration
companion
embod
intoxication
trees
warn
acknowledge
acknowledgment
##emas
##uccess
##apping
useful
compuls
collector
partially
nursing
causa
crack
##eler
beck
persona
fast
insurers
hurt
razon
##itures
compensatory
sheriffs
outlin
pil
asoci
dissents
unsuccess
michigan
alley
pecun
dod
fra
##emos
missing
hamp
536
warnings
gasoline
via
faced
straight
energy
##ocks
##bl
england
establec
##iere
indefinite
invoke
totality
load
interrup
ende
rebuttal
inflicted
hoff
zone
inmate
##ban
monday
differences
drew
lor
668
##bi
solid
lives
ours
bajo
immig
seeing
votes
authentic
safegu
pueblo
sigu
##arson
tree
apelante
purchasing
suspend
restraint
growing
austin
credits
whisk
##apsed
scientific
griffin
gonzalez
##illo
associate
eastern
diagnosis
estado
putting
strateg
remit
myers
nonsuit
bra
acad
decre
bloc
injustice
participating
honorable
incorporation
briefly
defence
rip
presumably
walter
extends
##arios
installed
manufacture
fox
talked
wrongfully
repeal
barn
condem
##ublic
deadly
contempor
559
automatically
##iant
650
massach
##aly
aspects
cion
reclam
##hen
integrity
##ception
mcl
notary
fract
##read
fourteen
charitable
##usetts
samuel
redeem
fcc
analogous
##aukee
##ippi
dallas
cuestion
575
embraced
massachusetts
557
cincinn
archit
md
reveal
teachers
14th
cualqu
changing
emple
tow
hunter
aggrieved
mortgaged
prere
quick
accorded
emphasized
sergeant
marc
cincinnati
juicio
lugar
knock
##hart
##ignment
verified
annum
dol
evaluate
talking
unreasonably
movant
nullity
assurance
##asi
province
611
landowner
illegally
unexp
##ener
tested
intervening
581
##sed
addresses
procedimiento
##abor
##insic
couple
633
##took
mandated
virtually
598
adding
enforcing
volume
1914
##inter
orphans
interim
mu
ban
cig
engaging
sha
##ras
negotiated
prerequis
mos
guardians
psychological
frivolous
reliability
anth
libel
wise
##force
lose
suscep
mitigation
milw
cad
reporter
ese
tip
controls
lord
youth
secondary
hors
##endar
arthur
medicine
##elling
eject
fellow
forfeited
ademas
563
ellis
season
recognizes
##gger
um
pharm
values
607
565
paternity
misma
##cs
cump
maturity
boys
mississ
corrections
630
608
ip
domicile
tamb
merger
slip
bars
mcd
milwaukee
##pping
703
indirectly
measured
mississippi
freeman
603
vital
sexually
gate
1912
pecuniary
1918
1916
protecting
organiz
606
incumbent
mentally
facto
kar
precludes
suppose
631
seg
comparable
upper
613
budget
hod
mountain
deprec
recoll
586
##oma
625
wholes
finder
push
snow
perp
manufactured
webb
##jects
disregarded
crew
weapons
certify
assessor
potentially
licenses
##water
fab
perez
webster
ker
whereupon
cuanto
591
veter
perj
negro
##bury
holdings
##ats
kitch
chattel
daugh
605
revenues
580
write
##ucky
obst
supplies
alto
arre
alternatively
minority
haul
garnishment
abut
sheet
##pt
feas
##iner
asb
disall
##book
throw
##orious
bush
##illa
brady
frauds
584
hazardous
558
uncertainty
##lete
journal
##oga
carroll
inch
bot
oak
collectively
##oney
inconsist
offset
hole
tambien
milk
enumeration
sac
572
operative
reporting
cos
conversations
garnishee
bottom
qualification
##ares
inconven
##itness
voted
knee
dry
590
583
compensable
interes
doubtful
invo
bath
insure
##illy
replacement
goal
614
proffered
sla
##eto
height
undertook
674
motors
appointing
preventing
murray
vict
##forme
579
continental
prosp
grandmother
sessions
renewed
##friend
##titude
660
persuaded
##icket
advances
actu
tractor
##uesto
##held
holders
617
obliged
recre
missouri
metrop
arra
ring
shipment
dill
dispositive
delivering
institutions
612
ka
casos
rescission
##isen
mey
navig
##lyn
undermin
executing
pump
relieved
##east
prescribe
enab
##ello
obsc
dna
hope
##child
quer
lump
dy
simpson
overall
narcotics
dower
len
video
revoke
dean
##bon
administrators
salt
inadvert
confirmation
##iro
pursuance
predicate
577
dispar
fraudulently
wait
sample
forc
632
abatement
587
comparison
566
metropol
brun
585
##lett
monet
568
1898
occasioned
faul
640
621
drilling
demurrers
cable
antes
withheld
bish
contrato
litigant
##lington
593
repay
begun
706
pierce
##orton
599
##gen
recurso
576
tucker
582
569
arriving
cord
directs
susceptible
label
vessel
gamb
termino
803
converted
dixon
fines
promulgated
difficulties
submitting
##umin
eliminate
metal
propiedad
falling
sie
embar
disqualification
##vision
ella
alb
universal
drawing
uncont
##olding
touching
shaw
asbest
615
sixteen
driveway
578
allegh
dissolved
##rio
obstruction
616
cele
psychiatric
installation
greg
certif
##question
arn
resent
567
589
wearing
cure
##aint
syl
listing
serves
597
eminent
advoc
flag
##elig
wished
nonc
dot
inequ
kidnapping
##payment
chest
decep
complic
albert
hair
richmond
opined
financing
notific
delayed
resign
pregn
recommendations
select
##ainted
incapable
revol
##endum
privileged
peter
mack
increasing
testimon
parcels
sleep
##kinson
remote
harassment
width
ends
medication
704
signatures
demandado
##vency
unique
advisory
##anted
dennis
consumm
pin
666
link
623
planned
investigating
valued
immigration
##annon
eighty
622
##rim
birm
##erald
resist
installments
till
nue
blow
perpet
leads
arbitrators
horses
monetary
dim
cease
carpent
availability
##arely
tan
588
republic
wagon
laches
definitions
jew
peters
metropolitan
unquestion
coast
videot
shift
emiti
quote
deduction
birmingham
burns
aet
##ini
619
contradictory
subordin
weighing
devol
collecting
##ugh
litigated
occupational
appropriated
movement
employes
620
postpon
pt
allegheny
dispon
##orial
wild
beque
entitlement
electrical
##ague
sew
andrews
concealed
##acies
tob
handed
overlo
consecu
bradley
ci
perfected
802
bequeath
abogado
##enta
traba
testifies
naturally
propositions
shell
neu
bent
affects
dept
robertson
ones
recital
owns
scre
oct
cutting
empow
##oken
arrangements
710
marine
stephens
nonres
##eso
2c
erection
mf
devices
##onic
distrito
ble
otra
592
eyes
liberal
modern
##using
guide
contribute
##gee
escrow
596
dw
ny
##iler
trucks
##iously
##berry
624
substances
ejectment
machines
regulating
affil
funeral
differently
engineering
extremely
petitioned
mediante
##pi
ranch
15th
coupled
##usive
burdens
elevator
accompanying
##urd
automobiles
sli
##mc
##aro
entries
transfers
##ientes
impeachment
rain
utilized
abol
figures
alcoholic
595
consumers
assump
711
overturn
rented
peril
runs
##aneously
627
toll
erisa
lapse
attendance
predecessor
tenth
cigar
picked
bou
##itively
corresponding
exhaus
911
invested
greatly
grandpar
bit
terminating
fn
##ius
yards
devised
petro
asset
bases
##hs
annexed
effected
agricultural
tribe
dark
##uson
1909
curb
user
##coming
undertake
payee
594
1903
disbar
##anton
explos
971
mck
618
##parable
disposal
thorn
deferred
passion
sometime
deprivation
scrutiny
##rill
##antum
silence
transit
promises
wrongdo
palmer
definitely
pendency
##strong
spl
oliver
##ded
639
ethics
servants
encourage
gc
madison
##tist
kentucky
silver
approving
##pat
forest
residing
compared
hutch
645
sisters
13a
litem
orally
##ran
##ko
ticket
brid
subcontractor
boyd
aim
##urers
anthony
deliberations
kitchen
inclusion
hayes
##fs
657
merchant
637
borne
litigants
690
loaded
##je
##affirm
bac
##whel
##irman
brakes
governs
purchases
picture
armstrong
calendar
candidates
overwhel
interposed
##ae
quantum
##oco
elapsed
ky
652
##ertion
grat
endorsed
heat
655
contacts
bishop
##tiz
irres
premature
aetna
##lose
629
academ
peterson
subjective
626
careless
answering
##ayette
reducing
guest
contemplation
658
ced
industries
709
elli
expenditures
television
intermedi
append
baby
amending
sess
wo
cualquier
rapid
weighed
687
edge
allocation
grab
##ored
relacion
648
636
believing
refr
outlined
undertaken
##elli
numbered
wishes
endeavor
subscrib
705
neglected
negotiable
erie
influenced
vermont
##onym
lynch
implies
tortious
unsupp
borrowed
accuracy
exhibited
634
auction
vicinity
##quez
2nd
unduly
##fl
628
##cence
excused
tendency
##oen
berry
##ulton
##ggs
disappro
dunc
joe
legitim
deep
##ibi
message
primera
##termin
641
708
ryan
temporarily
pursuing
owens
##loqu
nichols
uphold
asbestos
bryant
flight
solo
grocer
cun
foreclose
improved
##sen
##dale
667
ore
stockholder
gilbert
royalty
slow
pago
corrup
##bound
665
##mento
judiciary
lodge
slo
animal
tortfeasor
inhab
jobs
efficient
reside
steam
otro
usage
nonresident
dividends
thirteen
675
conveyances
##acing
shipped
seemed
logical
rendition
quasi
quiet
##ivable
##iciones
recites
643
responsive
recollection
knight
disqualified
wet
656
handle
shared
1906
furtherance
##estri
searches
waiting
accurately
transported
##making
##ugg
memory
observations
licensing
##idas
matthews
##izo
accidents
662
older
ascertaining
spot
annulled
635
cher
descrip
meaningful
repud
tangible
wig
isol
chase
642
outset
liter
antonio
levels
condemned
gov
indemnify
tamp
alguna
eg
torres
doub
begins
le2d
registry
fecha
unen
##holding
clothes
schw
coff
thrown
diagnosed
lang
extrinsic
harry
ay
enhancement
646
mov
morr
happen
651
ox
berg
architect
accommodation
receivers
nunc
withdrew
1908
broader
bord
##aho
1905
broadc
forgery
desir
inclusive
surely
sor
legality
##key
shock
assertions
894
##aband
kirk
##aa
caption
gest
depending
inquired
673
admittedly
##nie
lac
codified
##pc
elabor
##inct
appr
692
regulated
achieve
duncan
661
##away
davidson
trigger
##arian
liquidated
##trust
executrix
sny
ongoing
##esion
contraband
funding
##icios
2016
admon
absurd
options
competitive
##ridge
##encer
1902
unsupported
conditioned
okla
turns
pull
payne
##trad
actor
##tio
653
injure
649
720
contradicted
omissions
901
804
1895
chargeable
eliminated
concede
compensate
##back
package
ignored
evaluating
cobb
porque
680
daughters
actionable
sequ
punished
overwhelming
ferg
freely
beach
handwrit
legacy
identifying
constitutions
relatively
hacer
promotion
kil
decrees
691
conserv
replaced
rank
sed
preparing
##fortun
magn
applicants
638
servitude
becoming
harvey
withholding
19th
fulton
arnold
##elley
comision
disposing
regional
jump
therapy
restrained
maxim
sellers
misled
joinder
##ensable
arts
protections
663
##ua
suggesting
perfectly
893
669
##orship
644
excav
judicially
shre
cashier
jar
cumpl
orth
recoverable
substitution
colloqu
ft
sugar
sut
asociado
##resh
encl
snyder
soil
grave
conveying
##agle
locate
##olk
pipeline
speculative
##atch
altogether
hartford
apportionment
##ek
recorder
##uir
baldwin
689
841
##iciously
707
willfully
desires
shoot
enacting
venture
##craft
##athy
exig
administratrix
arresting
hunting
parall
suffice
tail
664
tools
patron
lex
##town
assumes
##ativo
defaul
posed
##iser
sua
659
hob
##ror
notification
dias
##rof
hypothe
wayne
willis
714
678
learning
specification
alibi
670
ster
liquidation
insane
##tras
grace
cargo
deducted
mechanic
volun
inspector
commencing
attributed
misrepresentations
ello
654
24th
meets
shreve
deadline
conjunction
##ho
shareholder
deals
pedestri
nationwide
mandates
elic
projects
interior
diaz
occupants
characteristics
supervised
conser
sevent
insolvency
processing
hoffman
satur
assail
variety
##ugn
leonard
entrance
wolf
acuer
evidencia
preservation
unfortun
structures
##ellow
perjury
defamation
##fa
bodies
lists
cs
mall
ineffectiveness
686
sponte
672
dunn
725
chairman
urge
posted
custodian
ree
comparative
682
irreparable
liberally
hes
684
688
mouth
deber
lacking
providers
estos
incur
enterprises
685
##tha
805
647
1904
##ila
synd
##endant
repro
preemption
divorced
foreseeable
##father
heavily
despues
##uestra
##tration
purporting
vel
incarcerated
##arial
condomin
717
syn
offenders
676
##olph
##iffer
vez
wed
767
fitness
conductor
fixt
component
formally
dealers
751
##ture
inelig
770
gravel
relatives
966
platform
profess
proximately
reass
bottle
indul
covers
fitz
ax
invasion
todo
increases
kat
indigent
wasn
consign
nowhere
721
usur
681
bru
exhausted
wade
arms
designate
embodied
articulated
workman
morrison
inserted
visits
surgeon
relators
arrive
uncontrad
discount
tenancy
upholding
awa
doors
crane
unsuccessful
occupy
redress
683
terminal
correspondence
671
bids
confessed
refuses
dui
acceler
greene
854
deposits
din
estaba
exculpatory
jurisdiccion
930
bea
autos
artif
simult
efecto
chapman
##rb
pelle
summarized
omit
soft
hig
prevents
736
##eding
731
mechanism
contingency
brain
1897
##oped
balancing
shotgun
ignore
carpenter
##eh
adjour
disclaim
dentro
lengthy
perceive
##osh
lloyd
aplic
dub
##outs
media
unenforce
acceptable
indiana
titles
741
kle
responses
quien
harmful
continuously
inev
##teenth
speculation
693
parks
##ensen
weaver
demonstrating
shreveport
airport
precau
jacobs
visible
watkins
bequest
played
ferguson
clinic
##eccion
gambling
split
unconscion
please
categories
congressional
commits
concurred
columbus
enhanced
empowered
facias
##iembre
pronounced
composed
tub
##icking
focused
inacc
customary
##ipped
cub
715
deliberately
revoc
##iders
##icti
margar
annually
immin
owes
sant
trains
infirm
rosen
safely
##ions
landowners
elliott
traveled
##iling
mead
distinctly
instructing
premise
unanimous
dani
volunte
suppressed
indictments
diminished
broke
nichol
memorial
embargo
##rier
chron
deriv
spoken
harmon
accusation
pave
cruc
decis
colo
kan
leve
fro
903
reaffirm
viv
concealment
fields
handled
prerequisite
##leum
tenia
expertise
noise
##estation
retention
mixed
hasta
##ager
nl
communicated
730
manufacturers
##ala
gran
drunk
foreclosed
enters
##neth
assisted
favored
##tid
bernard
acquiescence
partly
appendix
unenforceable
salaries
stipulations
junta
leasing
weather
##omo
##race
##uso
wi
desde
677
##owski
uncontradicted
residuary
limine
indispensable
##mas
connor
##gos
stanley
successive
1000
dau
shut
finca
##ressive
738
cold
businesses
##gent
suspected
acuerdo
guess
##uda
statutorily
723
judice
effectuate
expans
craig
compensated
tol
814
curtis
anos
697
stopping
##rage
knox
eyew
prosecutions
679
713
850
780
hiring
753
defici
colloquy
kansas
prescriptive
eyewitness
spencer
##aco
installment
competing
warrantless
##iano
patrick
fol
recalled
surveill
avas
724
sims
##urate
organizations
##ela
contemplates
falsely
attendant
arbitrarily
okay
##othy
communicate
745
apro
##ci
na
unlo
irri
##bing
enrich
threatening
multip
cier
animals
vacant
arrival
phoen
exceeds
733
adjusted
lue
todos
##terly
719
petroleum
neal
mcn
dic
unavailable
##endered
##eco
tenure
walls
phoenix
electors
726
752
695
##okes
##onymous
band
712
##zier
breaking
hypothetical
apelacion
leh
734
parallel
unclear
delinquency
##sons
flat
pledge
cruz
subdivisions
harper
bidder
rut
french
##fo
##wes
##wick
index
og
##abilidad
executory
tas
##mans
mayo
729
bounds
1896
716
positively
nearby
abutting
invited
perkins
acquitted
699
linc
hars
thence
proximity
surveillance
727
tariff
inmates
hawkins
discern
attitude
infringement
##isi
##ram
funcion
902
905
possessing
gary
grossly
806
remembered
assure
cohen
696
insufficiency
poly
##kers
delegated
skin
amic
cald
ballots
paramount
colorado
arranged
untr
burke
unwilling
dangers
infliction
investments
kenneth
ral
cros
presente
##oln
740
starting
tic
saturday
bos
cath
joy
interviewed
richards
ee
732
convenient
forwarded
809
bridges
hyd
theretofore
ale
surgical
nashville
##itis
hicks
intends
718
821
heroin
840
eleventh
cunning
##berger
##till
grandparents
perm
delito
gates
##ishment
determinative
cancelled
##tie
735
1891
describes
##ahan
discharging
wheeler
1893
775
uno
monies
flex
gregory
suddenly
##onesty
advertisement
arguably
disburse
722
emm
##cept
761
groups
mccar
inherently
pointing
ride
todd
inhabit
yellow
doubtless
##ylum
pronounce
wounds
##safe
whisky
wholesale
asylum
danos
immune
808
pose
criticism
imply
sanch
propon
simon
dropped
alternatives
##oria
810
824
sight
##acco
purports
german
##itably
pays
propounded
##sight
fuller
20th
exceptional
appropriately
##rin
che
unders
retroactively
##aign
exempl
##iries
frequent
##ishing
nonp
minimal
voice
alternate
consulted
equities
concurrently
depth
sealed
chester
paving
caught
##mark
affiant
737
gang
williamson
marketing
1887
drill
##sit
resolving
relationships
##gas
unsafe
##otec
belt
span
##imer
demanding
dependency
742
trunk
valor
wheat
##immer
##erd
incomplete
initiative
##before
##bursed
appel
unaware
cured
territorial
arc
brew
intelligence
minnes
survive
compulsory
##inks
observing
surveyor
buying
minnesota
century
strategy
reopen
lincoln
##rogated
lender
defender
supre
juries
infra
charl
qued
##ader
1900
features
inclined
enunc
inconvenience
carries
stein
irrespective
##place
targe
pope
codic
brien
765
##bard
##erty
firearms
hypothesis
wording
marshal
unrep
chevro
grandchild
cous
mechanical
helpful
ner
successors
conoc
pud
faa
practicable
mfg
unil
agreeing
cunningham
loaned
##aterally
16th
loose
cards
hid
constrained
757
chevrolet
ministerial
shoes
bob
plaus
upset
schm
811
broadly
depreciation
nix
815
assn
##bank
johns
informal
hospitals
stic
mcf
grounded
beverages
1899
844
captain
837
caldwell
exhaust
##onde
documentation
kinds
luego
duress
denomin
acknowledges
newman
warner
margaret
12th
bore
framework
transferring
discrep
##ancias
correctional
unquestionably
thoroughly
voc
parap
thirds
meritorious
895
depression
guardianship
accrue
desesti
perceived
##zen
wilful
807
recib
camera
coordin
mah
##organ
gay
prudential
harv
keys
doubts
ceme
elementary
880
sanchez
goals
restore
nominal
studies
deductions
warned
comfort
imminent
prejudgment
facilitate
vigor
retrial
698
830
alf
secs
pole
820
maria
##umph
conscience
##erick
##athan
exemptions
##arged
pel
procuring
cooperate
erect
belongs
newark
benj
shopping
intermediate
nonmo
resides
##ropriation
vinc
782
motel
legatees
reid
stead
##uated
impermissible
mccorm
feature
proviso
##arded
indiffer
bull
scale
slaves
##oley
forever
##dc
concent
##endants
lucas
904
assumpsit
rif
fingerpr
celebr
underc
counseling
pursuit
##tier
attacks
alike
817
vaugh
739
tobacco
johnston
elector
detained
canon
747
investigated
devoted
1889
wires
clarify
rs
watts
825
proves
hereinbefore
lading
pues
codes
##night
perpetrator
754
908
744
##folk
unlik
condominium
gather
ratification
investors
ratified
howell
833
##itos
prosecutrix
deceit
inflict
operators
truly
racial
girls
seventeen
daniels
servs
historical
publico
herman
prisoners
flu
biological
contributing
seccion
##isee
telegraph
satisfies
endanger
harbor
factually
ic
chair
easy
extinguished
transmit
northwest
ejerc
##ses
elicited
mann
##bors
army
campaign
otros
riley
lineup
electronic
prays
##bach
annuity
hipotec
debtors
punishable
adversary
survivor
nond
gol
railroads
##ung
excer
analyzed
##entes
affords
mailing
delays
cc
departments
intelligent
ath
reiterated
749
unwarr
southwest
728
sending
bienes
indemnification
813
755
ning
##odes
768
guy
surprise
finality
intervenor
834
grocery
760
##tman
locked
776
larry
766
contemporaneous
settling
investigative
medicaid
spousal
evaluated
##amen
defamatory
degrees
##imos
wm
pieces
participants
suing
privity
771
kee
hostile
declining
christian
852
slightly
##oph
barber
##western
encumbr
##iveness
stephen
charity
couldn
shed
unch
ano
conti
##onents
hereof
812
##hard
annexation
arraignment
mull
746
gif
consolidation
##ieron
corroboration
##lemen
generated
##portion
unlikely
principally
defens
amply
filling
informing
documentary
762
889
foro
urban
vision
bap
nerv
liv
##light
retaliation
stack
851
farms
illegality
fond
mckin
##izar
ib
##alo
792
##board
18th
ninet
channel
constant
solicitud
motorcy
preempted
fixtures
forcible
inex
raymond
dc
dominion
disproportion
sland
ortiz
relevance
772
defending
##ahoga
lawson
cuyahoga
indus
enlarge
durante
plastic
forged
748
pictures
obey
especial
cultiv
sau
allot
crucial
segund
##vel
quin
defeated
1868
sarah
hills
computed
enjoyed
sween
reality
naming
regards
threw
##ographic
cancer
##cation
protects
shots
praying
promp
happening
rooms
lookout
tap
827
wagner
reluct
actively
elder
susan
burning
pill
beth
repaired
viii
##regation
##amer
764
769
trau
922
1894
merchants
retaining
benjamin
##aked
legatee
plate
763
blind
voter
finished
pear
dress
considers
surrendered
irs
excludes
palp
associations
participant
incapacity
stranger
865
743
resignation
pavement
stepped
jean
imputed
920
##iado
neph
ending
881
daw
cart
frustr
gentlemen
memph
knocked
drop
bruce
memphis
##uto
##orser
anch
bullet
788
954
interv
impliedly
justic
psychiatrist
##ocr
bryan
843
##ighted
holiday
announce
unl
revis
758
abet
arrear
won
kelley
##icing
conject
abund
ningun
##asting
roth
intervened
plantation
bast
irregularity
consumed
842
forens
hale
dealings
crossed
passes
repeat
756
832
##ectic
margin
##ectiv
permiss
crops
poses
reun
reconvention
moss
uncond
incorrectly
depar
fireman
circun
expenditure
minerals
resentencing
924
781
refrain
##eb
girlfriend
interpretations
capac
levee
families
##eration
pollution
solution
vacancy
owe
canceled
871
donor
mission
21st
unwarranted
accountant
##riage
holland
fow
conceding
boss
witnessed
inequitable
merged
791
samples
psychologist
stro
rot
tbat
785
hack
1890
inquiries
mechanics
apartments
779
meyer
dust
underwrit
nuest
discussions
barker
##brook
759
nuestra
prosecutorial
##opher
enabling
imag
dump
implementation
783
##keted
interfered
773
797
mic
cemetery
arkansas
embe
string
arbitrate
consumption
13th
users
dal
unimp
jane
harmony
fried
1892
##ete
abb
dedication
vind
noncomp
locomo
restored
unequivocal
fruit
aircraft
anx
790
calculating
embezz
guarantees
farmer
controverted
17th
794
hick
789
withhold
sweeney
supersedeas
hood
##aton
818
sad
tall
ern
incapac
premised
francisco
outweighed
nervous
inhabitants
humph
solicitation
depu
round
ronald
shirt
855
819
921
occupant
arisen
##tically
784
suffers
ambul
concl
##amine
differs
ix
dispens
907
matri
777
explor
828
##tracted
786
prevailed
obligor
stored
799
playing
forensic
rol
vari
routine
822
dies
factf
neighbors
justifiable
872
whist
felonies
codicil
##lication
778
implicated
stake
demandada
unconstitutionally
reviews
pc
##uent
cav
##annah
norfolk
invalidate
examinations
batson
##arrass
##lines
drafted
floyd
subsidiary
electricity
categor
prer
cada
appealing
autop
connect
774
816
diam
zimmer
flem
##iger
scen
plumb
ties
libr
doyle
barrel
mispl
##idt
forming
##ancies
reciproc
831
##ariness
disagreement
responding
advising
forthwith
882
tes
estat
presento
##arez
younger
fled
summoned
##sm
laboratory
##ye
dishon
846
860
retains
dissatis
garr
##rc
plen
confused
implicitly
laying
pickup
870
declarant
spar
##anties
santa
bright
trauma
democr
ef
toda
underinsured
puc
indorsement
839
dotd
1101
christopher
blocks
##ensity
casa
ratio
795
accumulated
match
910
mend
bulk
862
##rys
feeling
coercion
quantities
indorsed
imprisoned
winter
798
unsatis
875
793
##homa
constructing
concession
##airy
acquiring
sherman
gonzales
literal
rough
invitation
inducement
weber
copyright
misplaced
sino
tate
objectives
tool
##active
adap
906
forbidden
##mor
poster
787
economy
##tica
legacies
embarrass
practicing
##atur
ald
narrowly
persec
burton
paint
graves
disagreed
857
burned
harsh
prest
cv
intelligently
demurred
##kle
severely
tun
cry
823
accruing
incriminating
##orti
derivative
rivers
offensive
welch
diamond
violative
conservation
ineligible
deficiencies
845
possesses
core
967
##auer
cleaning
plants
incrimination
##athered
796
##olic
##umbered
divide
inspected
883
suicide
waited
ridge
alc
poder
intrusion
bags
pene
checked
estimates
##ecticut
prudence
importantly
suggesti
reorgan
pendent
griev
aunt
moines
888
donde
connecticut
836
lafayette
antitrust
lanc
gifts
laund
managing
##itur
barbara
garrett
friday
##nick
trading
##artz
##het
skid
vacating
adjudicate
rud
##icto
ost
1874
otor
##entive
reproduc
835
stable
aided
keith
enunciated
norman
adh
subordinate
constitucion
853
hinder
##ime
fracture
pleito
dodge
raw
constable
suf
sten
negotiate
myself
##encias
##ave
loading
duplicate
opportunities
severally
boston
rush
framed
explains
exclusionary
1870
manifested
oklahoma
smoke
873
recreational
quashed
oreg
##ciones
fron
species
##itime
##my
uniformly
tribal
plural
indec
typically
formation
acquiesced
quickly
859
861
hizo
growth
apar
909
champ
grain
##worthy
livingston
nisi
##ican
squarely
continuation
863
buch
##hill
detectives
826
facul
kay
investigations
cens
cement
lite
897
##agh
mcco
beverage
computation
tyler
menos
grabbed
assoc
strugg
flet
950
explosion
tied
articul
premed
objectionable
##mpo
proprietor
strain
rural
dairy
earnest
confessions
anna
fleming
chevron
unconscionable
deputies
helped
professor
##itating
spend
eviction
847
logs
linda
veterans
noncon
cool
injurious
confers
motorcycle
25th
vease
858
unm
springs
exempted
cognizable
poison
assaulted
siguiente
keller
838
typical
notion
##ardo
smaller
offence
cant
pine
lesse
survived
829
ri
network
expressions
salv
satisfactorily
mines
waiving
circunst
devel
justifying
apt
##dox
deems
oregon
landry
facing
videotape
##gy
bare
buyers
avoiding
managed
gau
##etter
culpable
uniformity
arson
##enas
877
##med
religion
cave
hemos
entertained
hook
bathroom
santi
overse
##itionally
849
larson
wheels
recipient
consorti
complying
immov
mccormick
derechos
interrogatory
866
kl
confidentiality
emitio
publicly
mislead
##icop
unreported
curve
##antime
consortium
submits
meantime
burg
##keep
usel
unto
nuestro
strikes
jewel
lowest
occupying
chee
orthoped
lessees
isa
aj
cyc
hollow
merrill
shifts
emission
porch
logan
876
tiempo
seed
dual
simultaneously
980
convert
##rome
usury
assigning
holt
employing
##lets
##care
gaming
igu
##amble
insureds
1876
realize
##ecu
regist
dear
prerog
basement
##uk
angu
roman
revolver
monitoring
940
engineers
spread
939
truthful
gratt
alive
examples
maddox
anybody
logic
dividend
ignorance
##erra
useless
willingness
cameron
harold
1888
deterior
host
856
glenn
fletcher
neb
##isti
##usable
commod
885
##vis
chattels
uim
windows
##sett
advertised
qualifying
publicity
confess
printing
counted
vein
##itative
autopsy
dej
shore
handgun
874
donation
867
paso
cass
868
disabilities
reglamento
querell
oi
sears
temper
gan
irrigation
depot
fon
brewer
developer
lund
pes
##unto
petit
transmitted
earl
earth
distinguishing
anticipate
booth
##ira
patr
herbert
925
plumbing
marion
prol
viable
morales
##mouth
30th
appraised
flaw
subsections
##bal
1886
##ray
enton
motivated
trafficking
wend
detrimental
##esting
brake
shelby
1873
tag
abide
interfering
adultery
severity
tradem
imped
adhere
unmar
pond
registrar
reconc
##enz
primer
deviation
losing
idaho
##bin
bates
wein
adequacy
##omy
nlrb
appur
##atherine
tent
catch
lyons
appraise
handwriting
869
##sch
sost
plenary
periodic
locations
storm
pamph
##imientos
trabajo
28th
guns
misch
summarily
contradiction
##ingly
##rant
dirt
kal
pushed
overtime
##fall
fueron
##alty
sells
confirming
analogy
2781
##thon
anguish
##entioned
drawer
permissive
handc
temple
lig
toler
conver
tickets
cumm
feed
pic
whistle
purview
escritura
affection
relinquished
916
##isle
##emen
currency
leak
mutually
referenced
lastly
grandchildren
tox
analyze
dues
safeguards
jon
blanch
checking
toled
builders
879
1100
##arious
senti
##shire
chronic
entonces
912
methodology
prescribes
##ipe
27th
clim
nic
orange
pf
teaching
misunder
enrichment
loy
##agon
bone
##cock
##mill
sites
##uten
agost
factory
exhaustion
testigo
##edience
##ouch
abn
pleasure
desirable
anchor
disproportionate
##eal
jerry
cooperation
##lands
clinical
print
bun
gor
preclusion
##thouse
stu
possessor
dissolve
succeeding
##lean
ralph
tolling
approxim
896
borrower
dental
repairing
embrace
dp
restoration
913
##eley
secondly
beas
decisive
demeanor
864
insistence
##ensively
ambulance
principals
973
efficiency
apprehension
gained
flash
presumptive
deline
26th
detainer
infection
julio
##gett
1885
dice
barrett
##irez
reserving
##icially
nom
prince
resting
914
oversight
cooperative
##ector
##zy
handcuff
wouldn
provocation
hardy
##uded
886
disallowed
##ography
##evelop
affix
878
frederick
fresh
tunc
newsp
ada
915
sutton
alv
##mend
thornton
warden
maliciously
footnotes
reprim
cruelty
dock
isolated
motorists
junior
##apped
vul
sob
golden
learn
##keeper
##atible
esto
tercer
rata
slave
diversion
pau
otras
collier
lady
pipes
fined
originated
momento
expressing
gast
wool
remanding
##izon
techni
899
rey
attaches
##oon
wards
omn
##mmon
alarm
concurrence
reprimand
rating
functional
cel
890
orderly
eug
nomination
848
##kett
succeeded
stark
speaks
dispone
destination
blair
subscription
coch
circuits
strang
alterations
891
aiding
marie
##agan
disturbance
trat
allowable
rentals
1884
grass
892
recovering
suggestive
apa
administering
fishing
##chester
disbarment
prime
dividing
##rolled
consulting
newspapers
uncontro
tales
boxes
beau
898
zimmerman
pretended
sty
rebutted
seated
##orne
brock
spons
##itee
patric
modifying
arrests
adher
severed
probationary
chamber
supervise
pags
##ui
appli
guided
##ementioned
887
crash
junio
maritime
toledo
##las
ourselves
briefing
robb
##aman
inconsistency
furnishes
##dell
reeves
personalty
allocated
unpub
sickness
ration
##imited
artificial
mcne
lodged
outrage
ramirez
relocation
1879
aforementioned
publishing
sid
processes
cloud
##osicion
abnorm
objecting
vincent
fowler
##eroy
deport
bax
aggravation
agu
hammond
encro
parenting
deliberation
analyzing
fis
bic
ensued
referendum
patricia
recourse
eagle
controversia
motives
entrusted
##elope
salesman
contemplate
notif
29th
disrup
steven
clayton
dign
##advant
##hetamine
stations
##abouts
collided
923
winn
contraven
crown
rick
angeles
##osures
recklessly
expectations
trucking
inhib
disadvant
884
##acle
maxwell
commented
exclus
rus
functioning
vagu
developing
solem
impermiss
drafts
##timore
chand
pants
wherever
assailant
pendente
##ints
consummated
empty
bidding
##aun
##ema
mccoy
matrimon
rifle
##ectual
objectively
clarke
especific
##titur
hind
fda
dew
legs
grams
wrongdoing
jam
billing
fulfilled
lambert
amicus
##ani
oce
region
progressive
locomotive
##iers
cuales
suma
suspicious
nick
ucc
sewage
##izacion
lamp
codef
competit
purse
apprehended
lancaster
evil
exoner
supremo
pledged
unfit
litigate
slipped
gathered
cere
invalidity
griffith
##jos
waives
transcripts
relev
disqualify
annotation
tab
southeast
917
nonconform
kemp
##viction
seriousness
consultation
1877
falsity
parsons
turp
##oe
seizures
somebody
signals
prospect
##ician
confusing
prothon
menor
##voc
##life
927
poles
technology
rhodes
vocational
##gado
declaro
resistance
appurten
ss
1871
structural
divested
##iaries
connecting
caliber
hopkins
subscribed
postcon
endorse
tee
unlimited
lis
wants
stocks
##bridge
expansion
comparec
951
bowen
##therly
financially
lumb
plausible
narr
shoe
1880
1201
santiago
marzo
evaluations
attacking
strat
intentions
instrumentality
murders
incumbr
novel
directive
burr
ku
medicare
1881
posterior
preston
unequivocally
##ancial
opponent
bradford
preex
adam
fallen
settlements
amer
##sex
manuel
trigg
remittitur
kick
varying
indifference
tires
testimonial
distributing
quotations
shipping
##vi
cliff
acknowledging
bonus
urging
wick
moyer
##iscl
##adora
boiler
dale
emphasize
royalties
negotiation
impermissibly
byrd
##amento
##borne
pj
rab
obstante
writer
ud
1883
invoices
equipped
safeguard
stall
willie
tj
##accion
aunque
porn
obtains
purportedly
##down
960
dedicated
fernandez
firmly
norris
telec
venta
jennings
utterly
worse
usu
##otary
calculations
transporting
##uster
slander
excepting
predecessors
##iza
molestation
pedestrian
xii
sib
huff
##die
bowman
adds
logically
intending
schmidt
##vable
spite
kau
##ails
##shot
bour
ja
robbed
wear
##oming
##while
reh
policeman
pra
mcmill
resolver
ingram
shelter
##utt
prevention
disorderly
##izer
exit
exercises
##boro
northeast
proceso
undermine
remarked
odor
pretty
registro
spouses
nonpayment
918
##xon
nmsc
helen
rio
specifies
induc
locality
unpublished
envelope
delegation
##alt
appraisers
specifying
anywhere
reple
nmca
igual
coach
attained
casey
internet
1872
dependents
##uye
unres
##rysler
appliances
shape
##above
vast
##gate
stronger
inception
dawson
1882
##eting
##how
nex
estas
prosecutors
benefited
technically
resuel
methamp
predomin
duff
prompted
encountered
annotated
basically
feb
001
persecution
xx
cousin
ruth
voluntariness
##oa
dicta
phrases
reciprocal
disposes
lawsuits
##ingo
pregnancy
impeached
ipsa
repugn
specialist
##rolo
cohab
disf
contribucion
jurid
exemplary
xi
grandfather
newton
##kal
cerv
handic
##anan
respecto
integral
troub
##di
walton
vin
lifting
immovable
summers
maybe
responds
completing
confisc
crimin
moody
prothonotary
irregularities
bequeathed
wilfully
##crit
superseded
hazards
hoy
presentence
patrons
notably
reciting
pfe
lieuten
factfinder
hir
carbon
puts
pretext
1875
##tes
warranties
imprac
intervenors
allied
incentive
domicil
jess
wals
plurality
secre
toxic
polygraph
sig
subcontractors
fbi
appraiser
heating
trace
hed
depended
conjecture
sees
parapher
vendors
repayment
disappear
lowe
poc
deser
randolph
shannon
burlington
##uesta
irrevoc
##anson
modifications
stair
similarity
farr
uncontroverted
courthouse
sustains
compact
sheets
lift
presumptions
accounted
baltimore
beasley
paraphernal
mente
enjoining
aqui
postal
shifting
ignores
gm
##ois
recogniz
ensuing
clarified
negate
syndrome
assignor
practiced
rubber
postconviction
decrease
personas
circunstancias
extrad
materia
948
haya
##02
919
declaracion
transact
##inski
appreciate
isaac
albe
precinct
transform
hodges
discred
whereabouts
brian
guill
disallow
discontinued
determinacion
##inely
deception
tram
trespasser
demol
reformation
hew
traum
owning
methamphetamine
symp
tower
proportionate
sos
convince
jewelry
branches
procurement
gerald
preexisting
unsound
##ensual
treaty
justifies
##usal
payroll
coroner
nmsa
##eur
beard
preserving
camb
navigable
reserves
doesn
consecutively
characterization
reaction
berger
townsend
favorably
lamb
nol
##rogate
och
##uro
incorporate
lynn
delta
autoridad
glen
frazier
leasehold
investigatory
wb
##aping
agosto
managers
bayou
mild
##eros
reaffirmed
tin
skills
hereinabove
infr
materiality
accommodate
extern
sem
##zar
fuera
##och
initiate
buff
943
mount
loud
bylaw
birds
facult
cantid
standpoint
tho
morals
derog
##amination
dixie
handbook
apelada
##will
attain
bump
owen
reloc
defensa
implementing
unanimously
##eled
expanded
##ultz
bass
discoura
inevitable
##tte
occasionally
sanitary
demandados
931
practition
deceptive
precedents
##vas
hansen
klein
wer
ocean
walsh
constantly
notation
alder
maine
vaughn
remin
cty
dying
reflecting
fraction
albeit
pregnant
impressed
1878
clerical
billings
enf
938
criterion
alfred
manip
voidable
whart
epis
surch
926
horton
##gage
shipper
lieutenant
interrupted
consequent
tutor
encouraged
tam
vagueness
sharing
##illary
##ahl
proposals
reviewable
hospitalization
cooley
unint
acreage
mm
##iston
cedar
touched
components
unexpected
corroborate
##idate
##ende
academic
pleader
tech
apple
lunch
##acks
philip
pilot
##cott
##patrick
spill
resume
##ennan
relevancy
##resa
slightest
pound
##vern
gains
brack
asc
coffee
colored
baile
cn
##tivity
patents
unconsc
ramos
specialized
reimbursed
tier
hines
literally
obligacion
centers
ace
harmed
unjus
gotten
pom
ak
neill
resale
##haw
racing
##lee
972
bil
homeowners
##atical
abusive
##eing
culpability
##ubre
jurado
replevin
forces
clerks
stre
turnpi
sweep
glover
##onda
precluding
nap
##eliness
acquainted
indecent
mcken
latitude
cp
garb
ancest
##lap
utilize
chooses
terror
haynes
pu
##esp
##ettes
publica
nancy
extraneous
##ecedent
pressed
##stairs
##antile
##ouss
impropri
saund
todas
remitted
alice
theat
residual
diversity
depositor
undercover
improprie
appropriations
jeffrey
hanc
loqu
bicy
##oux
mcgee
escrito
barry
##sworth
##eer
destro
nineteen
exxon
wisdom
prevails
tras
forbids
lp
excavation
##raid
surveys
science
tiss
league
nonex
lip
undersigned
lottery
##qualified
duc
atkinson
wad
961
equalization
estr
inaccurate
daven
justific
untrue
mediation
whichever
conforme
presentada
invention
ns
memoranda
invoice
##estone
interviews
ie
relax
glad
popular
competence
reaches
hourly
afterward
fram
cia
firing
stuart
hampton
hanson
assisting
ina
maternal
putative
##03
##hardt
achieved
kend
unten
democratic
kh
##ache
determinar
##iva
tul
sul
confeder
radic
focuses
tant
kev
lond
lighting
prerogative
metro
##bee
overd
triggered
mckinney
malone
1869
defaulted
grove
afraid
##yles
##udes
advantages
mercantile
cits
briefed
introducing
illegi
releases
rescinded
ancillary
carm
contigu
pearson
gene
overturned
inconsistencies
##enton
compete
reorganization
reconoc
tanks
termed
##ayed
invoking
survival
mainly
nearest
guideline
apelaciones
ponce
abril
summit
viti
diligent
eugene
totaling
volunteer
enclosed
uso
sanctioned
demandantes
##ieu
undergo
adjustments
effectiveness
adjourn
##dock
baptist
aseg
##agen
cervical
hancock
questionable
barnett
justly
trained
edition
docketed
tainted
##itar
dayton
flowing
leyes
clarification
hidden
attaching
demo
aprob
pair
##meyer
telephoned
particularity
nonconforming
bowers
distant
examiners
resem
conceive
precautions
##bra
prescribing
929
couch
steele
unconditional
turnpike
##rif
deceive
1866
receivership
davenport
landfill
apportioned
##ersu
rez
accepts
proprietary
usufr
##cox
##eling
resisting
fitzg
morton
chandler
schne
tamm
941
unqualified
descent
ellos
ficti
##hand
refining
purpos
thinking
feelings
trademark
meter
jay
decides
debido
##beck
pap
arrend
mindful
concepts
orthopedic
cafe
abbott
noon
rea
hein
patton
negotiating
hubbard
dictates
woodward
974
barring
mud
paved
martha
##rig
brokers
weakness
chrysler
##stead
verification
vessels
enlarged
firef
contrat
eman
##eza
interruption
senora
975
grievances
##quar
##lia
stal
dak
displayed
tp
container
contravention
sala
lanes
nes
seconds
979
gw
970
disposiciones
rays
victor
staying
external
vick
enumerations
##11
seques
rulemaking
nun
dispat
deducting
scha
coat
expun
consequential
perju
precip
accessory
complicated
depriving
nicholas
stemm
recoup
jn
diminution
dud
fruits
ech
##ighter
desestim
closer
magaz
##atus
##oso
pup
thur
easements
overlooked
##usc
loquitur
cannon
##bc
unpersu
usufruct
928
conclus
doubted
reno
liver
unconscious
personality
capit
mercer
qualifies
1001
appointments
afric
courses
955
seize
saved
ernest
photo
grantees
miscon
searching
##wright
##illian
tener
varied
ard
nonmoving
fatally
randall
proces
worthy
abortion
sg
promo
insuring
counterclaims
##uder
supplying
virtud
powder
31st
inflamm
renunc
##operative
laborers
laborer
mencion
carson
##ggy
contesting
rigid
escaped
veracity
vand
nurses
meat
neil
hin
curia
abolished
cba
proffer
dimension
buchanan
hess
cigarettes
932
photographic
olson
##thy
lessors
breaches
scire
presentment
alexand
donnell
##ads
solemn
captioned
torn
corrupt
timing
ocup
bird
jumped
kra
##ificacion
##houn
##apse
mike
verify
colum
conferring
respectfully
responsabilidad
ethical
recess
corroborating
ignorant
nexus
adqu
screen
camden
london
scan
abate
rails
meaningless
##eras
specificity
makers
935
##affer
intereses
reconcil
beaver
estados
engin
copied
gin
anonymous
untenable
##elman
preceded
jurisprud
unavoid
ladder
boulev
forfeit
intimate
municipio
feder
enactments
944
##ima
tard
clara
##arias
manning
dwi
tiff
rightly
conveni
dominant
##tivo
traumatic
##mant
fm
kevin
headquar
##ss
stub
clarity
alega
imput
suficient
faulty
mccon
heading
disinter
##ym
garden
phel
supplier
revoking
customs
schwartz
##uge
spanish
reconventional
drag
potter
devoid
946
##unidad
library
marcus
pig
departed
##ouncing
franchises
wilkinson
implemented
monop
##aban
enrolled
investigators
aimed
blake
facial
945
sparks
grantors
flores
excusable
presumptively
fug
affording
hace
guarantor
moves
exclusions
vests
ply
fd
solido
existe
keen
tribunales
clinton
builder
##owell
traction
##isible
calhoun
demonstration
ail
unfortunately
capacities
vas
missed
opt
encroach
schedules
fitzgerald
atkins
higgins
sociedad
border
probated
noncompliance
ocasion
anxiety
##nr
spine
934
radi
classifications
titulo
##estock
asegur
needless
##fi
retros
proponent
essex
unreli
worthless
smoking
somer
choosing
##lynn
tat
falta
peculiarly
blackburn
generic
977
sleeping
937
##pd
nerve
##ski
##baum
rare
##lar
kell
diminish
■c
considerably
boulevard
##areness
981
shifted
disob
valent
953
diciembre
##lements
spur
chiro
sierra
licenc
numero
distinctions
efectos
coke
emer
##cr
dignity
##kill
injuring
computing
aliens
burgess
disse
tavern
score
##umes
ency
##encial
wolfe
inadequacy
discrepancy
informe
##idio
stern
desk
hebert
visiting
##table
##tility
diver
octubre
juveniles
sequestration
style
specialty
procedimientos
peticionario
hauling
enero
ceiling
illustrate
coinc
quitclaim
##uminous
bold
dogs
##anks
anticipation
lud
shelton
nephew
lung
array
joining
pike
debr
##iese
stages
933
intimidation
pellee
##iend
fabric
amen
##uvo
secretario
nut
institutional
provisional
acto
burial
segundo
requer
reese
marry
yo
farther
scot
saunders
directory
devisee
governments
bene
encon
jes
golf
##gi
produces
unilateral
expresses
##net
siguientes
peer
reward
exigent
##uv
lend
##feld
happens
alienation
bif
elicit
validly
ai
lle
contiguous
##ensible
games
pfeifer
diseases
unmist
cabin
hutchinson
sanity
returnable
sys
assessors
gap
counters
univ
##omfort
sports
whoever
usurious
goodman
resumed
feasible
parr
executions
##zing
osh
hatch
constitu
caddo
968
embezzlement
undertakes
bailee
958
peck
shirley
##mez
964
cigarette
ages
mit
admir
carriage
rack
filings
dillon
cantidad
mover
ingred
##gel
proposito
descriptions
desertion
farming
sequence
##gro
preter
software
sidewalks
guidry
mischief
dishonesty
unfortunate
forg
swift
haven
polk
##echt
1867
1860
demostr
peoples
##raf
everyone
midnight
##user
misdemean
vigil
livestock
target
counselor
990
brut
posting
awareness
nie
unfavor
##ovich
pagar
latent
compels
extradition
bend
lakes
notarial
unmarried
ew
soto
##voir
descendants
calculate
timothy
manera
postponed
vesting
##roller
reposs
altercation
mitigate
fog
tons
dictum
tile
guards
kirby
appraisement
hammer
sham
semi
mcgu
cd
##kl
lt
collusion
overlook
restricting
cochran
fictitious
devisees
drake
odc
somehow
entreg
luke
stairs
978
compt
lester
evidences
fundamentally
senator
vehicular
stret
invitee
unmistak
retali
walters
quarterly
excell
pertains
##keeping
donee
jacket
revise
suspensive
illegitimate
entitling
gratuit
##zie
cess
advocate
engines
admonition
chen
eh
conversely
##liest
991
podra
##idal
deportation
ruff
##agher
impropriety
resisted
norton
unnecessarily
hernia
visual
abst
collaterally
hospitalized
extinguish
##uil
reins
telecomm
lexis
looks
curiae
ofic
ctr
hoc
weiss
947
presidente
accrues
roger
wald
resorted
adults
toro
overhead
unsatisfact
##ibus
bylaws
underground
952
canada
marr
workplace
foods
fluid
##ecker
stabbed
bankers
orient
995
##umberland
dealership
##aney
corners
dissatisfied
shipments
##lers
ted
pueda
headquarters
##ancip
indicative
claus
adjudications
earliest
reapp
983
debate
acquaint
broadcast
##stown
993
notificacion
holloway
##vio
exited
defended
##alc
croc
##rea
gamble
lumbar
consideracion
transpired
nas
pharmacy
aus
writings
cleared
composition
boykin
subpar
##oz
pornography
await
hays
lehigh
bergen
rationally
minimize
936
katz
meruit
gab
disclosing
comptroller
quinn
998
962
adoptive
regularity
reservoir
ches
##sp
unambiguously
alexandria
##olo
underwriters
negroes
##otte
irrec
divest
lom
career
##ni
957
firms
##ivo
imperative
tantamount
colonial
sion
distributors
arguendo
brit
sobriety
sake
985
sewerage
identific
indicia
enroll
domiciled
shields
eor
##inty
decir
##gie
##rod
pleads
egreg
compound
dough
nonprof
942
gestae
timeliness
contrario
##pin
itemized
dhr
romero
robbins
959
possessory
miscar
##tido
damaging
##iates
bottles
dpw
eliminating
adjuster
schneider
meritless
conducta
remun
##astate
dyn
956
##yon
nebr
caracter
1002
stick
hereunder
selecting
pratt
garbage
mg
triable
mcclell
statewide
grading
greatest
988
rum
stringent
instructs
yates
notifying
##04
##ption
expire
castil
paraphernalia
decreeing
distributor
obstructed
delegate
attested
laps
repugnant
icc
sues
1003
pace
intervener
oport
garner
##car
mej
faculty
##12
##ibb
conventional
copper
hampshire
garrison
ast
cain
unsatisfactory
motorman
cheek
averring
mccall
##ova
descriptive
curative
bifur
jesse
1021
aids
outrageous
expensive
gi
certifying
##enture
empleado
matthew
##aca
mistakes
##akers
##iably
replication
whiskey
displ
intrastate
##abo
residences
derive
fences
quarters
rarely
##icab
tunnel
disinterested
circulation
random
999
resigned
angle
##ilst
particularized
accessible
recite
gunshot
inadvertence
##raham
implicate
unloading
divisions
organic
meanwhile
##rir
frances
##intyre
taxicab
transferee
encontr
turpitude
969
cummings
##oncil
mercy
gomez
alguno
nebraska
enabled
perpetrated
castle
##berly
tues
gob
discovering
redevelop
steal
differenti
thib
approaches
##tas
pulling
pittman
necesario
pie
advisement
lav
##alous
##comb
##sted
conceived
##eu
affixed
##cri
somewhere
982
rup
impacts
laundry
mcdan
solicito
macon
##oto
##works
luis
objeto
dad
nj
curry
settlor
underw
cj
corruption
chick
solvent
##enez
hardware
listen
basin
contamination
fs
wine
acute
ruiz
brouss
##omatic
navigation
##anna
boyfriend
949
tribunals
garanti
billed
irreconcil
reprin
pror
savannah
fet
posture
comprised
tenor
cognizance
pari
telegram
levying
surveyed
cres
dekal
nixon
##omed
adhered
sheep
##bear
cec
##tilla
992
encompasses
latest
traditionally
registrador
1019
recognizance
entitles
misappropriation
bequests
elaborate
terren
##inding
unfairly
engagement
recurrida
##atham
paternal
kath
subscribers
controversies
betty
sharon
dekalb
ankle
accrual
wildlife
complies
avoidance
doctrines
elimination
noble
rightfully
##ya
fighting
louisville
##ortions
tuesday
kel
##nels
erro
resolutions
989
naturaleza
wharton
segreg
##leton
footing
##site
trata
messages
neurolo
##icopa
stap
fingerprints
recurrente
african
escal
repose
stability
withdrawing
doctrina
##bern
pendens
bicycle
resource
extensively
recitals
alert
disturbing
##person
##olved
ramp
rib
invite
976
tuc
pena
casino
strange
dhs
bron
gibbs
supplemented
scheduling
enmend
diagnos
lindsey
aquell
toy
estop
solicited
inh
butt
##met
corps
scream
gaines
tolled
ladies
agriculture
febrero
arrears
##ieri
bales
promoting
markets
subrogated
##omon
blanket
interd
amm
##leys
retaliatory
gets
entrap
libell
oppressive
discounted
dut
##ropriated
acquires
indefinitely
adel
schol
criminally
lebl
expectancy
producers
centum
dakota
##jr
interesting
treatise
maricopa
fabr
mant
sera
film
inspections
##tees
deer
precision
apprised
##sters
faithful
##uman
dat
projected
suspending
egregious
omnibus
honestly
##oral
antecedent
sterling
##vass
wrongs
mcdaniel
##part
situate
becker
broussard
equitably
incompetency
viewers
cherry
rolls
##strom
reprinted
promoted
herewith
funded
naked
##riger
retard
empleados
nada
raped
marvin
deprives
joyce
disbursements
swore
##tings
ancient
obten
misrepresented
concentration
unions
catholic
##gal
##istence
lob
##lings
1035
965
brennan
servicios
2052
nombre
congregation
contamin
gravity
reclamacion
##tson
ferry
drs
tissue
whilst
medina
suspects
afect
mathews
recreation
cult
morrow
irrevocable
persuade
pronouncement
##urban
##uyo
benson
cane
anchorage
kw
fib
##uities
instal
denials
fen
laur
dob
sovereignty
citizenship
burglar
worn
##change
perc
fixes
stenograph
native
rt
anders
inaction
sheph
remedi
3a
##rot
##owitz
landing
sodom
##asse
jensen
##isis
articulate
##09
swim
bounded
lending
##eta
jas
impedi
tampoco
laura
airlines
carelessness
##roft
stevenson
clarence
grown
redevelopment
##05
costas
imperfect
apparatus
faulk
plot
excerpt
backed
plaza
noviembre
stratton
gist
dispatch
##ailing
bach
tyson
baxter
hern
unavoidable
abnormal
##isor
convinces
styled
frontage
mec
pauper
til
consciousness
##cul
refriger
interple
nonprofit
felonious
emma
razonable
ther
narcotic
esq
pne
ballard
inadvertently
##andose
ivas
reunification
##lights
extensions
wiley
mule
tbis
wilcox
christmas
fare
unreliable
ves
##etta
infirmity
ls
##endi
##ums
hered
■of
equip
subch
desiring
obligee
indians
utmost
##06
disbarred
##mental
mcmurray
subpoenas
appreciation
hath
mae
impeaching
moses
##utz
foia
##phin
inscrip
siendo
vex
amuse
mathem
corrective
dijo
##lick
tasks
broyles
##izado
gear
sist
emissions
banco
cola
dorothy
telecommunic
nathan
mcbr
alli
schultz
referral
healthcare
tapes
ski
weekend
eeoc
differing
purposely
unidos
996
##uously
963
##tig
alan
##ighters
wigmore
favors
disparate
enfasis
heights
wj
mcel
invalidated
releasing
clothed
customarily
modo
canvass
lean
##wha
measuring
usurp
986
abuses
obscene
posesion
thinks
leblanc
estan
##amo
1221
firemen
##jan
mcmillan
reconstruction
remedied
inherited
akin
porto
##orpor
independence
ellen
cest
987
privately
##feasance
frequency
embraces
##eda
impan
holes
##tric
miscarriage
sto
entrapment
valve
improb
##athers
durham
bair
##pes
avh
craft
incidentally
injunctions
attachments
##lained
coerced
recklessness
phelps
unfavorable
##worthiness
injection
karen
1009
ira
cw
identifies
disposicion
##aran
compulsion
seniority
approximate
##leep
lleg
reluctant
connell
hurr
music
barton
riparian
1032
thrust
persuasion
coupon
norma
aged
admiti
984
##tiem
excellent
root
ceases
shaft
##isch
veto
designating
asleep
oppose
##ghten
throwing
##rez
culmin
inapposite
kana
fonten
994
##elfth
coercive
herit
##endon
##gart
misstate
florence
##ianza
stealing
incapacitated
##mers
navy
permiti
twelfth
##vington
palpably
cabo
decreased
disclosures
crossings
authenticated
affiliated
beside
rit
suces
furnace
lon
diagnostic
alliance
milton
sensitive
circle
##bery
gut
deleted
explo
embank
fleet
hull
usa
1208
testigos
struggle
##inta
motivation
intact
grew
obstruct
whar
residency
llev
beating
kauf
eat
libellant
scenario
##iy
kerr
improvid
mens
repetition
medium
mab
cmt
stuff
matured
sean
seemingly
nations
additions
mistakenly
wrist
mcfar
##baugh
terminos
edison
assaults
##uating
##ibles
pneum
egress
stokes
topic
equality
##azo
consecuencia
incurr
soliciting
##oter
osc
vander
reflection
warranto
mient
evade
podia
##ismo
reyes
adjournment
az
endang
yar
mccarthy
wra
seis
bloom
mau
septiem
nuevo
jesus
catherine
subjecting
997
situacion
abrogated
##rad
##kel
libre
1031
ancestor
nuc
pasture
mientras
heritage
##ayer
widely
decease
annoy
uninc
yearly
responde
##nut
routinely
deduct
eric
grey
precaution
balanced
dictate
feels
benton
##99
supervising
##inas
documento
##therland
##auff
resnick
homeowner
blame
magnitude
##acer
##judicial
eu
urine
awaiting
tuvo
ahora
reversion
unexplained
patently
lamar
reliti
ogden
justicia
##fc
lees
battle
pardon
inculpatory
commentary
isn
conclusory
reformed
barrier
##elo
chad
##icz
muscle
packing
hogan
##hous
asph
ultimo
beliefs
flour
mature
transc
lied
##bow
zero
##comm
gravamen
rpc
##opers
##aj
expose
##aughlin
##ird
ramsey
underwent
##inge
duke
##irse
obedience
frater
wore
chas
ferr
survivorship
##pert
circumvent
necessitated
unprof
wallet
irreconcilable
perd
mercury
moran
concepto
horizon
travers
evidencing
ave
billy
1865
conception
sj
##adamente
transl
emancip
gender
stren
forb
psc
arrearages
frost
harrington
establece
##enberg
stamps
##joinder
augusta
dono
illustration
conner
steve
indorser
misdemeanors
kramer
ascertainment
rag
##iscrimin
travis
wing
hitting
septiembre
abraham
contests
predict
disparity
stom
1858
anes
incorporating
biased
regents
cog
packages
cuenta
oficina
recitation
whitney
speeding
wilkins
2929
offending
drun
##yard
bruises
patrono
##pps
##ulous
melvin
xv
##identi
codefendant
herr
shew
002
wrongdoer
insisting
##nam
policia
df
##07
##stal
drafting
##ifton
judged
historic
performs
allison
images
##heimer
##nic
exchanged
niece
advertisements
dip
cream
shad
restraints
academy
shorter
distinguishes
oy
revived
scales
roofing
1861
1006
encompassed
petty
angry
dinero
##ressor
tribes
##olis
concise
##borough
##oli
intencion
tuition
##patient
subchap
honesty
substantiate
##zel
favoring
insul
conten
chemicals
mules
feld
diverted
teeth
evi
eso
persistent
threaten
prosser
practitioner
clifford
##tured
##urance
ze
satisfying
repar
tanner
disapproved
pollut
dyer
##14
quotes
dictated
recusal
boone
departamento
discrec
##istical
##put
protoc
disregarding
kur
anom
omitting
announcement
unsuccessfully
abetting
tear
secrets
##nected
assented
##oly
troy
extract
optional
##izz
notorious
procedurally
fargo
instructive
##quer
torture
suficiente
assignees
debris
consci
empire
forcibly
aggregating
shores
eis
acept
recommending
hens
tenus
futile
ultra
receivable
mv
discriminate
wherefore
##mpre
goodwin
josh
moon
##gement
apprehend
ofrec
impractic
drunken
esqu
unemployed
##anco
qne
laugh
developments
berk
commenting
##oker
##ographical
subparagraph
boun
episode
intangible
osborne
stomach
breast
friedman
swear
speculate
carey
engages
nul
##ienen
meyers
effic
impartiality
broadcasting
penetration
gobier
asphalt
5a
synonymous
dial
aaron
nw
advisable
licenciado
wealth
guests
protested
annie
terre
copeland
propose
##ensed
sgt
dh
bleeding
proscribed
northwestern
##eastern
ensuring
absentee
wanting
##alia
implications
fij
siempre
##vez
quie
warranting
shr
##eca
interval
singular
adjourned
accidente
bund
cull
purposeful
##lear
leigh
tortfeasors
zoned
dorsey
lars
##atable
sodomy
##identified
##uptial
kap
pile
blak
condiciones
ascertainable
mclaughlin
##hy
campus
pedestrians
disadvantage
superi
fontenot
dichos
testimonio
telecommunications
shepherd
interchange
clearing
23d
pueden
trench
##pont
kern
sooner
coastal
dissemin
plane
ejec
explanations
stipulate
gallagher
titled
4123
tacit
exhaustive
tv
1200
kanawha
##iones
necessit
stops
sinc
##maker
1855
discontinue
trips
conceivable
scin
##acon
##arle
conspirator
allotted
trash
beg
##reaux
plante
jason
##len
bread
##pard
dram
tucson
finish
##brough
excepcion
perspective
fann
spaces
vulner
excise
22d
6a
cumberland
##hem
irr
##mitt
kimball
##iacion
excerp
honorari
labeled
hogs
##ingers
universally
ingres
010
illustrated
watching
22nd
hil
curs
##shaw
documentos
medically
chat
perpetual
delicti
medications
freeholders
##ims
relinquish
drastic
wooden
##rock
cinco
greer
##ays
##atim
luther
matched
advancement
forcing
2315
consignee
kre
stressed
crush
brush
vog
1291
screw
##erved
fax
confederate
##acher
encumbrances
denominated
posts
ejercicio
condicion
belle
easterly
servicio
moderate
dentist
slaughter
##rest
equivoc
scintilla
definitive
beneath
disprove
uncover
stephenson
individualized
verbally
malt
bta
vroom
sway
mcbride
diez
transcribed
bonding
eo
##abe
foreseen
hubiera
ingress
fertil
subchapter
expropriation
massey
disclaimer
brandon
amusement
resuelto
##15
##licity
##ux
accidentally
1299
deben
##locked
kings
lent
misappreh
##ienda
##iating
##leman
relinquishment
soph
propio
brak
surcharge
differed
cush
hoover
germane
blanchard
capitol
bidders
exterior
indorse
alvarez
##fts
communities
oncoming
integrated
honorarios
keeper
encumbrance
##oway
entertainment
##ediat
stenographer
outer
concentr
nob
nug
##etti
bacon
arguable
heightened
rust
remot
murdered
dictada
illumin
deferential
boyle
hardin
##asts
1103
obstructions
inoperative
identifiable
defic
instantly
lifted
mb
retrie
##eds
cubic
##eton
discharges
corporacion
derives
unt
lisa
whereof
grades
imb
traverse
seld
harrell
thousands
##amon
##idades
articulable
carlson
disabling
conforming
##isco
refute
1005
headed
exclusiv
##nington
##lon
##endez
matrimonial
characteristic
burk
vivos
rosa
presentar
inducing
trol
solomon
buckley
umb
muer
instrumental
##cribe
dickerson
phases
westerly
##rene
lever
scrap
administracion
occurrences
ampl
##inker
statistical
dueno
consensual
culvert
##iah
auditing
neighboring
##onia
contestant
floors
painting
hose
##ops
dona
lub
verbatim
jueces
##tos
scarc
ocur
accelerated
impugn
flan
tracy
flowers
nose
##acia
evinc
1252
anne
fdic
nc
pedro
figu
phila
crosby
birdsong
athle
fayette
miner
ces
aba
bucks
##bas
birthday
prerequisites
permanency
reconcile
1061
shack
upd
##hler
improving
julia
discontinuance
misunderstanding
jenn
stepfather
##oles
##tage
arraigned
donna
agencia
ambit
consultant
arid
matthias
##zman
thick
accusations
mie
atmos
##13
tube
accountable
pleasant
##clair
affirmation
cumplimiento
retarded
endorser
gathering
curator
accommodations
lyon
comparing
incompatible
existi
imports
1851
scient
rebuttable
miam
##tron
##ictions
conspirators
facially
mee
sweet
connections
attr
rapidly
memo
estar
conveys
deck
browning
indetermin
##oring
detect
prostitution
compiled
vehiculo
forthcoming
lasted
inevitably
cashed
##bour
punishments
##essional
previa
compania
requisites
concert
dnr
tentative
tienen
dishonest
expediti
tang
dynam
closure
clifton
committees
tomo
##usa
santos
intellectual
tony
adicion
leslie
reilly
repaid
trover
pard
5000
commanding
screening
cosa
byr
caveat
louise
wyatt
grady
##occ
herring
##orporated
reception
allowances
gallons
odd
##10
prolonged
##agger
cognizant
dissolving
assurances
unidentified
embankment
##fax
irwin
lewd
nueva
swan
##hall
treatments
ileg
briggs
movable
gobierno
forbear
vouch
gould
sosti
suble
presby
##fel
asunto
pennd
ideas
consistency
flawed
frighten
nicholson
howe
deductible
esos
mri
##pec
drank
discomfort
movements
##rella
bullets
substituting
shepp
quarrel
palab
promulgate
##tip
notario
winston
1500
heath
unpersuasive
overriding
1105
pref
realistic
burdensome
necessities
1189
unfor
caring
presided
vaz
alegaciones
##sts
reconciliation
##arc
erecting
##hm
journey
2254
##thes
kaiser
profes
rider
padre
unilaterally
geo
fewer
rowe
townships
buick
digest
charleston
robin
excerpts
global
lateral
resultado
inflammatory
partiality
recuse
gallon
proposes
propia
foreseeability
##stad
dispense
baseball
ears
burnett
##aha
cardi
reglament
spending
##nor
sutherland
barge
##atoria
abogados
1008
vance
##ritt
huntington
##isclosed
website
repudiated
##ecured
##erees
subpoenaed
accumulation
prog
dell
hobbs
1102
lado
vicarious
stump
cautioned
micro
contex
penndot
tru
fly
zh
curt
tells
mobil
##ecca
abd
##rh
veget
conditioning
morse
wins
bick
corporal
stafford
reen
queen
unin
1194
##wall
mell
legitimately
degener
booker
lib
policemen
adapted
suj
mileage
##atro
retardation
surplusage
recused
measurement
unchanged
supl
suited
employs
nrc
unob
voluminous
unincorporated
alford
ocs
annulment
comprising
occasional
beverly
##gio
superfl
southwestern
meses
##nard
insign
##neath
vigorously
otorg
spell
rex
obstacle
actos
##banks
endangered
tour
consents
carlisle
whitehead
manor
miami
situs
hitch
##ht
males
aviation
sv
palm
insert
py
headaches
edwin
midd
nobody
cows
loses
reglas
##erting
##ocio
trabaj
endeavored
pills
avith
##master
email
penis
socie
##rift
contestants
##mmer
atmosph
iber
adjudicating
everett
friendly
plates
mansfield
globe
propensity
##cha
##illac
##respons
excite
comity
feared
ripe
outdo
mold
destroying
deen
upstairs
licensees
##linger
utilizing
duda
dauphin
##quin
1132
conscienti
edmond
premeditated
perpetration
editor
stairway
publications
depositors
alias
impossibility
##08
##ustomed
ninguna
##cey
pretense
underneath
undisclosed
commodity
containers
fugitive
boud
considerar
confirms
1301
unavailing
debera
hijos
tight
##judgment
pretermit
concealing
uncontested
mccr
##case
copia
dee
ric
trend
tum
dm
compton
unh
effecting
victory
mpc
anew
eran
dicto
wyoming
barrels
unsecured
##adores
adherence
hawa
##nt
faulkner
unear
felton
wyn
cly
handwritten
stamped
avery
sandra
respondeat
bau
hey
ashley
gh
discoverable
1859
larsen
mcguire
impending
effectual
tampering
##criber
sane
bailment
oxy
personam
schl
graph
trades
pains
fingers
motivo
thirteenth
mccull
drilled
facultad
mch
vires
acid
conocimiento
alph
envision
##efer
excited
eventual
dred
fry
revive
expediente
cuerd
##vester
admr
loun
##ewrit
reservations
strangers
mckenzie
##pro
singer
##tons
wilder
mcconnell
foley
stim
cuerdas
rehabilitative
cadillac
historically
plank
##iciently
hide
tailored
1017
vazquez
##omb
1852
##rail
magazine
assocs
reconsideracion
##tiva
bifurc
adopts
habian
experiencing
downward
##ateness
defensive
knoxville
##isons
baggage
flexible
chances
##orf
bee
retrieved
routes
##liers
tions
##swick
deaths
dano
covington
rever
watched
carlos
difer
##orp
pearce
von
##los
nolan
swing
arthri
##brand
estatuto
siblings
formulation
odom
passive
##osta
##anse
baird
techniques
skinner
##icb
1856
##inkle
trap
potts
nullify
##mt
emphasizes
tactics
bargained
coin
tem
acusacion
anger
##23
coca
1007
dissented
obstructing
##cio
stemming
seria
regime
typewrit
beaten
juz
hank
tables
##mund
1004
valorem
eir
corbin
cohabitation
##ariamente
disfig
negligencia
castro
jimenez
impracticable
theore
##ige
speaker
inscripcion
lov
ignoring
##uz
1849
comming
aux
rebecca
##ibilidad
##jas
##ucci
truthfulness
rode
1602
conway
skilled
hacia
leach
1028
bobby
drinks
recordation
sheppard
fires
adkins
mckee
producer
##uestos
discrecion
humil
ges
##grove
##esc
springfield
brokerage
accustomed
##aga
perception
politic
addendum
absor
thw
##cular
##itions
cran
geographic
temperature
barri
objectors
savage
rav
##mite
detached
tc
parted
bak
orr
wesley
amenable
laure
uninter
kro
verdad
inspectors
unaff
osha
secretaria
caret
kane
manh
aband
medio
pomeroy
cuts
##uper
ske
roe
skull
largest
swearing
##zed
robberies
##inary
throat
1038
enju
refunds
tension
retainer
explanatory
exploration
fan
recipients
middleton
superfluous
##enthal
##ubst
lapsed
clair
amy
immunities
strategic
drawings
kicked
giles
incred
presumes
mcclellan
##roit
withstand
##anie
jennifer
unrestr
mig
versus
dolares
redirect
profile
scaff
nd
##asp
abated
caps
cestui
stur
letting
professionals
narrative
shoulders
reconvey
1042
pion
procede
correspondiente
##usions
kit
soundness
bolton
mexican
##otic
alego
##unctive
characterize
haberse
sacrif
gust
##rus
encouraging
##rian
ciud
illicit
blackwell
meanings
rolling
elects
pam
keystone
credito
mcdowell
mayer
alleys
shippers
##worker
##sky
##orum
dupont
mathematical
vist
jnov
streams
correl
hutchison
rope
mund
sky
replacing
1013
guer
handcuffed
tusc
enmi
parame
establecer
1836
correcting
dalton
ig
mayfield
surprised
conspired
unse
scarcely
misuse
palpable
vered
subscriber
subscribing
##estar
generate
spont
copart
1203
choices
##tiously
swimming
kol
rodgers
overb
praec
boats
veteran
##agu
##idiv
vagina
ea
faithfully
terrell
improbable
indulged
##ori
maps
informacion
mcgin
##stream
sper
proctor
chart
supplementary
##si
agente
simpl
bossier
1123
wbicb
bastard
unfounded
contemporaneously
abundantly
eaton
referida
framers
unfairness
##tish
recidiv
1104
unfores
shaffer
luz
mast
##flow
officially
observes
comport
habits
underwood
##hi
commw
venti
unrec
procur
003
1396
jonathan
sawyer
undermined
indeterminate
negocio
enjoys
merge
tl
vit
kaufman
wiggins
##eter
stuck
1030
breakdown
otis
slipp
doming
thurs
mcke
##kerson
##96
raf
##jer
imagine
poul
affair
boarding
mendez
shortage
feasor
sport
##croft
tran
##rupted
cyn
##quist
##eldon
hipoteca
xiv
remuneration
burger
ciudad
outweighs
reopening
##alk
assailed
deeded
brunswick
documented
interrogated
therapist
partnerships
gilmore
developers
1106
hung
harrisburg
2017
##tw
spear
axi
##mmy
unac
menores
schro
consolidate
buggy
intervals
spa
##anne
merritt
##aub
beatty
deud
cautionary
dwellings
singleton
wake
classroom
##uding
chavez
flynn
1023
mcfarland
availed
1863
1012
conservator
negoci
flexibility
koch
##16
incumbrance
picketing
fondo
pugh
boll
violator
quinones
##mat
reconstruc
prote
##idor
holly
messrs
ramon
##ng
crying
##manship
kline
caro
terminates
retrospective
infants
##anooga
ling
cup
##claimed
saloon
instituting
##americ
hooper
slowly
coron
interpreter
inexp
laud
deman
respir
hanover
dug
asamble
1015
basing
consenting
psi
comun
burch
guth
joshua
refresh
monte
primero
roughly
chattanooga
##obile
1011
formalities
##good
##erable
lant
operational
delineated
unintention
linds
linked
alluded
periodo
treats
competitors
bc
deneg
methodist
dre
technician
genital
garland
handicapped
cherok
butter
mayag
remorse
answerable
1854
rolled
waivers
unearned
adecu
rios
neuros
##idence
dressed
inquiring
fronting
##25
channels
hodge
duck
anten
##leen
estud
cuatro
freehold
##onom
##issa
1857
##aic
uninterrupted
corroborative
jimmy
9711
trolley
##belie
bartlett
republican
mullins
exempts
suggestions
athletic
orator
efficacy
rightful
parameters
amendatory
thursday
deviate
puesto
commens
##tree
shap
leo
stabbing
mortgagees
##therford
salvage
stem
constituye
17a
masters
supersede
sentido
scienter
traced
##orters
desestimacion
fulf
##urst
trustworthiness
antagon
literature
stole
champion
westmor
probationer
##ulates
trenton
auditors
nice
deceived
audio
combat
focusing
altering
lem
compromised
establishments
detroit
cire
spinal
cumplir
veredicto
##ecer
cared
unprofessional
badly
sheff
carta
guarded
1125
tack
aplicacion
informer
processed
dillard
westmoreland
##ocese
parishes
##daughter
balances
##elez
declarar
wors
disin
eli
explic
overpayment
pritch
delgado
hostility
borrowing
brewing
tide
holden
dickson
flooding
rome
##din
cock
1862
##uum
accomplishment
##icia
##anz
pricing
winds
reproduced
comparatively
disposs
interpleader
brakeman
##stock
detected
##ls
healthy
nac
##97
abc
stroke
##aines
conditionally
steering
prohibitions
crockett
deposed
rigor
appurtenant
proportions
adulter
collapse
ewing
hazel
proy
ambos
##ono
preamble
proprietors
embarrassment
bentley
admiralty
deliveries
distributive
ruffin
coverages
##ricks
penetr
theatre
sentenci
##see
twp
sistema
insular
1202
albu
column
aparece
akron
alight
representacion
census
lounge
mclean
1081
enrollment
advancing
smo
vega
wilkes
prox
dio
##tir
excepts
rocks
##shore
mismos
crystal
honey
cherokee
discrepancies
flows
protracted
dispuesto
installing
football
closet
comprehend
expon
yourself
dougherty
##ardi
perjuicios
##des
suppliers
breaux
##ners
ftc
limb
##uts
enmendada
fianza
querella
gos
lesion
volks
knapp
referido
wels
cans
unjustly
repealing
mik
wednes
##derm
rach
##ipps
4a
distances
##hu
1020
disbursement
1182
refin
hild
retr
wednesday
profesion
ditches
##querque
commences
##orsers
discourage
cardinal
##enden
##ede
fingerprint
##17
##righ
detailing
criticized
##irc
hesitate
##itant
corri
hopp
sayre
commensurate
southerly
##aley
##imen
##thia
phillip
outdoor
ilegal
writers
unco
##unition
barre
pioneer
defrauded
2317
hunts
catal
albuquerque
compartment
reiterate
sounded
profitable
overhe
##icting
diame
theod
controll
michelle
rr
##clam
towing
gle
collections
stove
incump
hug
fleeing
devolutive
heads
initiation
germ
##ecto
dilatory
##95
##98
1158
##esty
1033
indulge
aptly
desist
hartman
querellado
versions
ambas
1853
cortes
fiduciaries
involuntarily
postpone
sympathy
comer
##year
##mr
##24
twin
overly
announcing
##gler
olr
##hc
derogation
hilton
infringed
auxil
##esa
##tib
##inda
condemnor
invocation
conferences
fay
airline
superintend
praecipe
eb
##utic
##ogero
carpet
empower
##tress
serial
dinner
renting
discredit
ely
##thought
overnight
consummation
connot
strained
seats
##iot
fundamentos
seaman
1864
cecil
##smith
##orah
pastor
##aloosa
presentado
requisitos
reconciled
asamblea
binds
meadows
##zi
fits
perv
hallway
unconstitutionality
muerte
spin
immoral
cierto
pax
uncor
1229
##mens
bould
##gence
disg
johnny
nonpar
recordings
bean
fears
oscar
veanse
chartered
recr
bailiff
unaffected
lundberg
ammunition
miemb
isra
gratuitous
gram
roberson
##iendose
tt
suburban
cornel
##iciamiento
##letin
legislativa
##burger
##mble
ana
ponder
mirror
lodging
##uitt
##chel
finley
##erman
taught
##uled
volksw
whites
basket
pesar
stretch
pd
calogero
1850
inaccur
litigating
outlet
##orio
1303
hickman
continuity
rans
donaldson
expedient
galv
pharmac
beds
allocate
immun
premeditation
solar
##oni
draws
exertion
mootness
kos
als
counting
fourths
taped
retreat
discriminated
intensive
ups
crowd
continually
fifteenth
scranton
kiss
intendment
dispatcher
heed
mcclure
buena
northerly
lec
##wee
troopers
blocked
wreck
technique
org
principio
melendez
carmen
reinfor
dudley
##iard
sket
fractured
demolition
atmosphere
minded
tactical
understands
bounty
##geon
existencia
sack
statistics
wheeling
dispensed
competitor
##bie
##ours
capriciously
stout
##adden
mathis
une
sixteenth
##orded
vegas
subsisting
appurtenances
rods
##arlo
goodrich
1014
precio
##vity
1044
elevated
ville
##hal
lawn
1025
obligors
##itzer
eich
infringe
gastos
debatable
trailers
pearl
dimensions
##93
policyholders
contradicts
domiciliary
slope
1037
schem
impress
##eroa
ponti
contribuciones
remarriage
galveston
velez
succinct
bp
##ativos
theater
bullock
progeny
forbidding
poole
ingen
mcph
slippery
pulmon
teen
travelling
survivors
1153
resultant
enumerates
alerted
conrad
##amientos
retroactivity
##hoff
##ativas
helping
##18
monument
dance
uc
rale
undes
redhib
firefighters
acquaintance
allev
goodwill
exempting
figueroa
rescue
alt
errores
indications
tid
##sell
arrearage
##owing
stir
dum
miento
visa
realiz
bloodworth
elderly
delaying
##donado
##ulsion
##atorio
whitaker
valuations
cynthia
preempt
cb
bland
##cas
differential
breathaly
downs
hester
headlights
pied
sloan
smelled
##heim
aldermen
##ortive
demas
##etermin
##uilding
temporal
padilla
occupations
##rid
invokes
ts
videotaped
nell
decatur
##isson
landlords
peticionaria
isolation
shooter
anyway
cuya
justiciable
##oused
erick
utterance
##ishable
mercado
lanier
aed
adjudicatory
sewers
takings
##94
bulletin
hc
everybody
eyewitnesses
##nier
incorporates
americans
yeah
arter
honored
nuclear
setoff
failures
abolish
##criptions
distributions
selective
formulated
sumaria
rutherford
jol
farrell
septa
##ectible
##rum
##herty
attributes
nombr
avenues
##ji
confuse
enjuiciamiento
violacion
1022
1029
aa
clement
resulta
alumin
lighted
utilization
breathalyzer
meal
carley
vacc
endeavoring
dea
excessiveness
rezoning
felix
shea
##vised
fairfax
productive
discusses
sneed
predic
openly
tipo
##wich
incurring
##gestion
zur
cessation
1010
tammany
attribute
23rd
hundreds
eldridge
isab
##arth
spo
##anza
faces
seguro
fischer
dichas
##agues
straw
carc
##aints
frye
ida
##insky
1302
oste
confident
economically
##92
vaginal
lilly
##num
solamente
embracing
prospectively
heck
laurel
##char
■d
protocol
inadvertent
idle
investor
parolee
impl
prematurely
bluff
hing
##ieran
unavailability
overbroad
insignific
intol
unimport
vicious
levine
yielded
##iman
volkswagen
##gard
insurable
feloniously
federally
worship
commodities
acreed
tesor
toile
humphrey
warm
leather
oficial
occupies
incredible
aquellos
1041
hanging
headnot
bess
hock
constitucional
fulfillment
diego
coupons
##rent
victoria
player
disappeared
nolle
witt
pry
experiences
1112
alegacion
##amy
spect
##aser
rhode
disapproval
lemmon
trinity
ade
mccullough
1311
##stated
acciones
cin
kear
postjudgment
apelantes
1026
sostiene
paral
posicion
gibb
deterioration
decker
quarry
maldonado
hemor
edad
fork
refiere
wey
vacancies
patrolman
assumptions
malf
charlie
infected
stems
1027
conspic
cultivation
pockets
tuber
impede
resemb
estip
1848
repudiate
recounted
coram
yours
offend
goldberg
explore
abduc
1114
pupils
servicing
##xious
##tera
repurch
sioux
libelous
calcas
leader
##apa
varios
joins
modes
elk
drafter
maur
depicted
maneu
indig
peak
lockwood
##verson
unimportant
childhood
effectually
guillory
1331
planted
smell
assembled
llam
nonmovant
conley
contributor
##anges
##reen
irrational
identifications
rapides
wharf
gregg
calcasieu
razones
canons
distinctive
##nelly
amel
transacted
##box
appended
barrow
segunda
impediment
jor
obra
generation
detection
fold
lc
ww
vexat
##onne
##adian
##irk
bomb
##south
dickinson
1067
subast
presbyter
divert
sanford
esposa
stories
relieving
##iada
carb
deborah
##like
quillian
##essler
levies
##zinger
##untos
##reet
triang
kyle
guthrie
unmistakable
mcqu
##imilar
hijo
burdened
fertilizer
shepard
unic
fountain
breathing
##apes
1111
sidney
weighs
##tierrez
jurisprudencia
quan
##rafo
18a
conducts
1024
endangering
hann
anesthes
stale
dating
##recy
chauff
cellular
entend
ledger
reconven
bystand
providence
##tamente
interpretacion
insulation
dispositional
painter
1121
plymouth
##olm
financed
gore
assistants
2151
desti
eating
establecido
profesional
sounding
##class
feldman
fairbanks
bribery
contexts
##odeaux
borders
tomar
recount
groundwater
worst
aluminum
eck
empleo
invaded
clements
aplicable
classify
aaa
##elyn
roan
semin
guise
pm
##brid
lobby
##agement
oppression
abrogate
regulates
monopoly
enqu
##stances
admonished
edgar
##liff
recomp
##attered
qui
insertion
gutierrez
aggressive
sands
ranging
nolo
riv
##oit
##ili
pollock
clearance
blade
##vial
1043
counterfe
##inations
unb
ports
##iii
##gated
hyde
pontiac
##wr
stopp
mcclain
overflow
vulnerable
1122
spray
junction
thoroughf
##thal
happy
measurements
bowling
ott
slept
greenwood
export
pharmace
hul
1034
pennington
##ologists
baum
podria
rowland
retailer
wantonness
leroy
##apeake
surm
pens
##geries
pierre
##aud
unjustified
remedio
perten
pou
chesapeake
##otten
willard
incest
ket
converse
afflic
mcdonnell
subscribe
override
aliment
farley
wain
elevation
daly
dirig
suplido
##alls
citado
melton
beam
dissip
1059
1209
1018
cleaned
1099
repudiation
mccarty
meals
banke
hemorrh
##sby
invari
categorical
illustrates
1036
companions
diligently
migu
##athe
apend
appliance
advocacy
pn
##kie
apprise
##forth
##ambo
taint
mcgr
bld
##fold
1063
disav
advantageous
subsidiaries
resolvio
donations
##aya
xiii
##faction
##houses
sinking
##ws
taxi
brotherhood
parrish
##eson
compatible
appearances
butte
nepa
##aturity
equivocal
southeastern
encumbered
sheffield
misjoinder
entrust
secrecy
hang
1227
umbrella
iq
hereder
charters
iy
abdom
nunca
aprec
unjustif
##atura
1094
rhe
intra
britt
1127
vitiate
persisted
expedited
wantonly
##88
pawn
paterson
bruno
##iri
beneficio
worded
welsh
restricts
overton
homer
milling
##burs
dunlap
brenda
mostly
refunded
##olent
cosas
retrieve
denunc
toe
ames
abdomen
seizing
comports
thumb
controvert
culver
fiction
##emore
claramente
vain
possibilities
bottling
redeemed
missoula
observance
recurrido
##tivid
siding
countries
intoxic
proponents
remod
allotment
outright
franks
holidays
boyer
pg
dissimilar
miguel
grimes
##ensibly
##oreal
demised
estimating
presid
##inos
swelling
acord
appropriateness
qualities
1a
##frey
suffices
##forward
chiefly
sublease
mutuality
owc
manifestation
peaceable
##utary
pee
blount
##gone
hannah
##enzo
heater
1074
gradually
notions
recoupment
unapp
recurs
apendice
conson
implements
causally
valentine
incumpl
transition
expreso
slab
claib
rd
unloaded
##acio
interferes
surroundings
##ologies
architects
presbyterian
davila
confines
sophistic
##interp
interaction
mixt
projection
1040
afore
reminded
locating
hurst
ego
impute
contestacion
pushing
amor
theodore
hr
slips
alm
backing
doth
punch
1091
substantively
pertinente
##tridge
gla
waco
hanna
tut
commend
daubert
breaks
1016
ciento
variances
intimation
dissatisfaction
gat
ml
starr
legislators
landsc
roadb
taft
shops
digital
linn
misapplied
buried
mejor
iep
rejects
1068
discrete
pink
##ique
##fulness
1065
mcderm
passaic
boom
wounded
surprising
caller
1113
accred
1055
clyde
lion
seals
burt
aedpa
classic
variation
cuyo
exposition
china
callahan
wrec
##utch
dpr
##reys
##pan
unex
enforceability
##actor
##riel
intimated
##tance
metc
improvidently
arlington
realm
1172
circular
cireum
concluir
carelessly
misinterp
dado
1045
interpose
##licensed
lumpkin
contingencies
experiment
cip
chit
reassess
pulmonary
waller
insignificant
ashcroft
1345
vindic
habiendo
circums
arrow
strenuously
bibb
hamm
1057
silva
acceleration
midland
grande
unrecorded
bert
initio
lehman
implicates
oportunidad
mish
abo
necessitate
herederos
interrel
schwe
dormant
pab
##mem
coverture
heller
zach
1115
complications
stil
brib
stabil
mate
blacks
##roved
deduced
summarize
eon
oz
tomlin
philos
preponderates
jaw
ritch
reopened
multiplicity
obscure
##hed
restated
safeway
forbearance
##ogram
1078
##22
lindsay
gant
bypass
canadian
debemos
haas
leni
slack
affiliation
ain
ostensibly
rf
unacc
hoped
administrativo
silic
intertw
ganancial
claro
amanda
revisions
1053
1846
##inghouse
carolyn
##horn
addiction
practica
unaccept
phen
##uncture
laboratories
rafael
##via
stationary
discu
disfigure
coten
##iga
1110
trespassing
ceremony
##tero
esquire
sra
stad
050
seldom
##naire
comfortable
bones
ingredient
##omes
crab
lemon
lessen
yer
disord
pepper
superseding
carlo
##oate
quashing
denton
painful
condemnee
prescriptions
converting
mcintyre
##bitt
marin
diane
kimberly
vou
htt
graduate
israel
020
alegato
alber
besse
##mma
apprendi
pudo
unlicensed
image
derrick
##star
longstanding
obtener
axiomatic
1089
1257
hawaii
forfeitures
elmer
##roborated
##fit
gs
1108
phipps
claiborne
texaco
imported
weis
1050
denti
christensen
contri
##bral
postponement
exacted
bonded
grandson
plaque
unrestricted
##clamation
lid
1255
islands
enlargement
##owan
enem
france
uncorroborated
tuv
##rance
##anging
mcdermott
1056
##ilt
bristol
##entis
005
westinghouse
conformidad
inchoate
frustrate
cooke
okl
1049
contravene
##oce
anot
treinta
##thers
youngest
elective
preval
pollard
1058
randy
omits
hell
understandable
controller
disbursed
esencial
boudreaux
harassing
strongest
protr
##cla
tercero
forget
madre
unsatisfied
metz
1095
zie
evol
##etermined
segment
demur
sect
mays
avhich
ness
highland
1163
##workers
philosoph
mcmah
bj
unified
bender
##bonne
##icians
katherine
onerous
##iol
cater
##elines
legitimacy
precipitated
scotts
accords
sostener
intertwined
##apolis
traded
commun
##uela
gauge
1075
removes
viability
promisor
articulos
sip
waterworks
renov
spence
barron
supposition
accountants
aggressor
1060
schul
helena
maz
portr
mails
adjusting
aguilar
ratify
fender
oldest
initiating
deficit
cio
sax
interrupt
1204
pate
wach
debio
fraternal
rie
southbound
counterclaimed
gree
niss
phraseology
familiarity
nn
tive
girard
hydro
vida
workmanship
ventil
bauer
goff
abundant
##arn
pamp
1073
presentacion
##oh
munoz
hotels
##ulos
questionnaire
marriages
undist
pir
washing
exclusivity
symb
bras
heinous
natch
##blo
riot
uncovered
constructions
logging
unliqu
1062
extortion
castillo
##occup
erickson
promulgation
misman
systematic
abrid
malfunction
##crito
##itory
1116
1047
tone
##lene
fieri
glor
grado
unequal
##raft
consuming
ler
reent
controver
gillesp
rene
intolerable
##uras
requiere
posible
##dad
benev
##edents
priest
listening
atlas
impound
■the
mcle
decret
granite
paige
combine
##top
northbound
reluctance
eisen
disapprove
paris
afirm
loyalty
1140
grub
casting
acud
1151
proposing
dining
remaindermen
##ectomy
generating
bonner
##ulacion
powerless
photos
goldstein
##gments
1154
horizontal
cobro
pima
almon
remarried
blanks
recy
originating
harding
layoff
pensions
gur
implying
berks
perjud
intercep
oliv
summation
1093
##elt
precep
unity
mined
inflicting
glean
italic
distributees
clausula
nota
predisp
discarded
crowley
hust
##andt
totaled
ellison
curtail
honda
continuances
1087
##xual
schroeder
consenti
1142
carre
1292
pierc
superf
separating
004
cue
##zes
##ogue
unatt
pressing
destruc
administrador
bondholders
scared
exhibition
liquidator
vexatious
attesting
##inkler
##thorne
blum
1107
1070
calder
aquel
concom
conse
disbelie
chi
##hon
1051
1205
rollins
determinaciones
1231
rackete
danny
bookkeeper
lucy
irrit
odds
redacted
1039
varias
##ielding
##das
guzman
fundamento
##86
expresa
encroachment
recalc
##practic
##thetic
feeding
automov
crest
##grade
piano
upward
##tick
churches
amici
scrip
garza
degenerative
british
espan
convened
communicating
delicto
##zell
architectural
clase
eddie
bza
calvin
1077
relocate
straightforward
erwin
##rosion
sweeping
drown
rapids
tos
slowed
fastened
frightened
tuscaloosa
alvin
meters
sorry
knoll
denver
haley
repetitive
endorsements
toyota
vicar
gillespie
1305
transcripcion
pumping
1124
frisk
bifurcated
presupp
derel
pact
efectu
thibodeaux
jeep
formality
serr
contractually
amongst
##lich
subscriptions
1120
##sim
ably
impressions
fortun
hinton
intrinsic
mckay
datab
mayaguez
lirc
patterns
xix
impaneled
reader
nieces
somerville
kaplan
wiret
contaminated
compensacion
eighteenth
edif
putnam
panels
convicting
delegates
variations
boggs
brant
automo
amar
metes
##hurst
##77
troubles
chiropractic
carnal
recommit
goldman
dere
##elow
1134
##airie
vil
officio
otto
binder
f2d
deterrence
1330
annoyance
stacking
##escap
moreno
merced
1206
1343
##izations
federation
affirms
uh
unspec
mosley
adelante
plaster
policyholder
hs
andre
2305
alongside
##kowski
##uido
piz
cline
impairing
schuy
##etz
prosecutes
roach
sensible
enables
zurich
##gist
edmund
##igle
characterizes
1054
hesitation
debia
1171
1144
jere
1119
commands
seman
nineteenth
condemning
hici
kinney
jos
conscientious
mcelroy
illo
hh
arg
lightly
mismas
aquella
wrongly
ceq
unliquidated
##ifting
frey
bankr
downtown
ideal
swanson
studied
rooted
smart
##jack
centre
pour
horas
weakened
bldg
submissions
##icane
##enos
nad
casing
newport
dana
1117
attractive
reich
##asted
merri
picking
mcmahon
authoritative
schn
disclaimed
##rine
beech
quorum
1072
sounds
descended
goodyear
1064
viewpoint
traveler
1085
apelado
leban
servient
##rope
expansive
libert
mcdonough
1048
##fast
1092
trivial
goss
mare
toilet
foreclosing
newell
hertz
incompetence
swears
inescap
archer
1109
gwinn
##acious
periodically
##oo
examen
illustrative
##lc
opponents
constar
unacceptable
exerted
allan
hurricane
fas
stanton
disciplined
destit
4511
surrounded
suretyship
helicop
1332
lenders
12a
yon
##xter
##wc
habitat
mixture
conveniens
indign
frustrated
furl
knees
1126
1161
patented
icwa
numer
forego
overlooks
1152
nuisances
repurchase
spain
testate
ia
percentages
constructively
electron
##iest
attestation
##some
muse
relaxed
huntsville
protests
1225
lockhart
acker
labels
##idating
##cliff
triggering
meadow
glasses
indenture
cep
plug
provident
2744
flying
gel
animus
obscen
depon
arthritis
dispositions
inventor
disruption
kathy
ineligibility
##can
##idamente
predece
1086
debra
proteccion
1841
miners
bly
prosequ
labeling
cuart
wan
substantiated
etica
ouach
gestion
treble
swamp
preferential
##cheduled
efectiv
thin
prosper
crews
incumbrances
kins
1220
1180
disobedience
surrogate
penny
hawk
025
anxious
prods
hoyt
intercon
ers
1046
1135
williston
uttered
median
elbow
##dard
priorities
jasper
expungement
boot
envuel
legislatively
flsa
1052
1146
thief
counterv
resorting
cultivated
recommends
packaging
gorman
fist
parcial
criterio
##alling
##osexual
varies
1133
##oder
commanded
##alle
##ih
diameter
oriented
scho
##yses
berm
##tity
womack
lowered
1281
##apan
1228
1280
beaumont
welding
schemes
1071
horace
vouchers
nephews
emphasizing
##alled
depositing
sharply
revert
fmla
hauled
inserting
kindred
##plane
1199
switching
entireties
shapiro
unico
misapprehension
tong
robbers
demostrar
obl
1141
barth
2500
neely
circuito
obligatory
mick
desar
depository
requisito
misstatement
donnelly
roland
terreno
density
##vich
evang
emitida
jerome
progressed
obrero
duffy
marrero
prongs
referencia
##cop
1149
##aste
sketch
reductions
maneuver
referees
lays
contendere
slot
tipp
http
emery
##uters
##irt
hav
banker
1840
ineffectual
1213
winters
usted
usf
##iations
comunic
juncture
frankly
deadlines
railways
petitioning
vaughan
fendant
prospects
janet
emerson
mage
1173
succinctly
busy
wholesal
##chi
programming
##america
##elon
ases
intermitt
enmienda
ouachita
forsy
generalized
disallowing
##wear
disqualifying
##ruff
##miento
winner
vicariously
hacienda
riverside
cay
##uckett
guarantors
disorders
##edo
distint
stanford
disj
1066
concord
sustancial
blunt
dif
rawle
##200
ire
favour
spirituous
dt
scri
lackaw
1079
supposing
ejecu
reclass
acosta
shear
managerial
jacobson
withdrawals
prints
reclamation
windsor
pertained
amos
2945
ausencia
descend
faculties
transacting
oyer
visitor
inconclusive
##istingu
##omer
tubercul
##64
##ineness
rawl
sf
cuer
www
batt
complexity
kathleen
moff
harwood
1118
recycl
inverse
##entia
norwood
sinclair
brent
mask
wrapped
dul
##haus
##ichael
exagger
paperwork
evasion
1212
kam
yan
rosario
tutrix
dispensing
##wardly
##wig
1251
tolls
proxy
bb
healing
provoked
activated
oxygen
evitar
expresamente
constituent
authenticity
greens
bradshaw
braz
burks
dangerousness
kor
samoa
reproduction
bray
amparo
talley
preferences
pell
huffman
sector
kendrick
hayden
1333
unspecified
muy
capitalization
inse
entender
1181
gins
claude
unconditionally
belongings
leniency
sag
airplane
##oca
adjudge
fractures
forti
##chard
pretenses
1207
aer
angela
unusually
forbes
hahn
respected
1166
##onso
##iste
##but
lebanon
chiropr
donovan
adversarial
levin
donah
woodruff
##lette
kendall
##uf
snell
indem
##ueble
1098
ting
smiths
categorically
bessemer
ipso
##itudes
##antz
analyses
cogent
##gra
rash
decid
pais
narrower
foundry
civilian
revocable
breed
bedford
posteriormente
overlap
sz
##otal
visibility
encuent
##bill
##utos
grandparent
##gle
replic
suprema
nobis
fc
##matic
commerc
buys
exploitation
piv
slate
butts
pamela
##raz
##laz
olive
offs
conflicted
charlotte
allocatur
freeze
suspicions
russo
estaban
devises
recursos
inactive
1097
belated
ladd
oxford
reex
ub
trick
1177
helpless
partitioned
mam
##85
drawee
ledo
arrendamiento
##mad
tene
dodd
mcfadden
saylor
bible
esas
flowed
mcgill
diag
counterpart
illogical
1090
1197
##tered
assuring
##aboard
##illas
tread
curso
consultants
lackawanna
biv
3b
##anos
modest
##87
monto
enlight
1304
geographical
easier
pediat
tommy
instrumentalities
zeal
seaboard
##yne
diocese
arp
##minently
mueller
moments
abilities
administrativa
appreciated
prematurity
eber
mandating
judy
incline
bumper
bm
tecum
##tian
conforms
hendricks
implicating
chains
##into
wilkerson
##tation
##eye
wolff
accomplices
##rams
##uta
murdock
survives
olsen
barric
ciones
resolves
watchman
legislatures
electing
automotive
commercially
caretaker
iu
genuineness
##asco
homic
beers
flee
1131
proportionality
roeb
pollutants
twenti
patch
inconvenient
1226
1076
1300
injuriously
solicitado
copying
marking
authors
mcneil
optome
rous
forge
dys
diet
reclaim
hewitt
##iph
1261
untruth
chauffeur
nig
palabras
blown
volunteered
mentions
stag
riddle
exculp
midwest
retailers
surgeons
mgmt
graff
atch
imputation
towers
1129
prominent
1215
athens
slid
orte
observ
hubiese
senalamiento
rim
twentieth
cycl
nominated
carn
coroll
joan
divul
##ivably
wau
consciously
##riot
realizing
evils
hight
1210
safer
40a
bethle
unresolved
haines
##ampton
##trum
mcgh
1084
eccles
##ogg
sink
venc
1082
keeton
##espread
##mal
pretend
visitors
##attan
defeating
bain
##ingsworth
informs
widespread
restaurants
julian
ceqa
1136
assignable
verte
horne
bernstein
josephine
disfigurement
whitt
cellar
2505
gibbons
regret
sucesion
mash
sexton
wainwright
##har
firestone
cometio
1167
borden
##elaw
blackstone
conceivably
bethlehem
felici
harlan
precedence
##zzi
regions
##cet
simultaneous
indexes
ments
##enstein
construccion
abey
incont
coerce
washburn
quedo
plum
reduces
extinguishment
judging
conceder
ambiguities
bust
1842
1843
##atz
drum
darr
reinsurance
compil
ordeno
westbound
thank
abiding
barriers
raid
safeco
listened
##cell
privies
kas
shul
1344
compl
fisheries
fuentes
typed
layman
mou
execu
drunkenness
bout
judgement
81a
cualquiera
chamberlain
loos
mesne
pipelines
suppressing
mered
2255
crushed
riggs
sall
hubo
pathologist
##ieren
1214
##65
texto
teague
terrebonne
cousins
jure
mendo
eve
##ilion
ink
##roph
3000
usc
supermar
emily
vindicate
stalking
##mel
##35
ans
appren
podemos
potato
1148
gentry
sedan
decedents
1130
1276
attract
pervasive
##xton
noel
crosses
bearer
1222
a2d
ries
privy
appreciable
exposing
adjudging
planting
notar
asuntos
vall
proclamation
cind
misconstr
tf
countervailing
##ibo
tenable
cope
disconnected
unden
salud
input
purposefully
blocking
##crita
mons
exceedingly
kenner
iberia
sible
inexper
inspecting
fractional
hiding
pey
##members
##ths
##amil
solicitar
lowery
cuestiones
1310
flint
cleanup
casc
neurological
gloria
childs
feasibility
breadth
coalition
zen
lenient
1367
##ecia
1083
1845
diesel
meredith
merchantable
matching
alderman
crum
lia
colleagues
dunbar
overheard
1096
fumes
liga
grazing
exposicion
##ollen
calle
unnamed
unpro
subasta
1326
estes
fitzpatrick
handicap
intents
vio
mahoney
terminology
playground
mcal
initials
portland
sear
depressed
tariffs
withers
##lance
liberties
meritos
anomalous
ming
tuberculosis
preven
instalments
recurring
caseworker
punto
minimis
dile
salmon
sadler
interpretive
albany
bran
##urrido
contradicting
bah
talb
duces
sd
conden
prolong
##identif
necesidad
lacer
joel
##ogen
shopl
##dez
##tl
storing
films
ignition
parkway
veil
1155
unexpired
veinte
holman
chaney
sandy
grayson
donahue
setback
comisionado
pren
modific
emphatically
strengthened
plaquemin
obviate
gainful
escaping
##leaf
blanche
boh
painted
elias
##uncion
crump
ux
alleviate
spol
kidd
##ulas
nab
defray
pickett
##uestas
blows
traylor
maynard
anteriormente
maloney
1839
reiss
pilots
dash
1844
custodia
electoral
marginal
emotionally
recap
abandoning
##acker
cnty
verizon
entail
sando
spasm
crediting
graduated
nondiscl
1069
1223
1164
lill
stoppage
pruitt
collapsed
metals
1137
juzg
similarities
tenements
##requ
trespassers
crossw
convenio
##reated
##wald
seym
exacer
reinv
##vals
cowan
circulated
negron
1080
draper
structured
ejecucion
abode
##hoe
accountability
mortgagors
sigue
chicken
##gnier
courtney
godfrey
mce
proyecto
roadblock
1239
hindsight
blakely
##azar
##staff
kidney
nh
justa
qua
conformed
endangerment
exacerb
moor
spi
characterizing
##rina
##20
spectrum
##iteness
roanoke
gananciales
##regor
springer
aisle
wonder
shovel
rubin
##ajo
humphreys
chal
##84
sta
steward
spontaneous
gris
##arla
■s
urg
intervencion
intrusted
sill
1234
crux
pav
bio
relaciones
atten
guides
lias
defaults
##olia
necessaries
mendoza
sponsor
015
##meier
disagrees
extrajudicial
certifies
italicized
players
##gert
fern
chemist
villages
##gham
##cor
aes
parad
1250
unsw
##idez
augment
zones
##irio
apoy
humiliation
suspensions
preliminarily
borrowers
disfavor
medico
narrowed
douglass
blaz
unreg
behavioral
oun
dictamen
pumps
byers
civic
##ewski
rankin
precept
christine
rebu
hooks
dv
butcher
afflicted
investigacion
1145
digests
unused
segregated
inure
delete
deducible
lark
demise
signatory
weil
eastbound
csx
empan
emption
capp
##75
sequester
oldsm
carlton
beauty
annuities
encourages
variable
flagrant
seymour
1128
herrera
violently
fabrication
apon
waist
inescapable
hartley
cage
injected
fluct
combs
bam
buffalo
repreh
aprobacion
poisoning
shen
subro
##wy
colorable
furlough
handcuffs
disobey
##pool
marble
esche
extre
fiber
supposedly
supportive
sognier
baer
hare
##uyente
estamos
##oxide
wares
clubs
canyon
constraints
cabinet
##hey
030
ellington
darby
spears
lighter
paula
kroger
##urbed
imperial
matrimonio
shawn
pagan
oldsmobile
declines
blanc
revealing
2b
nit
acomp
appraisals
probabilities
expulsion
scra
loads
racketeering
repeating
schuyl
##fferty
credential
weston
deuda
prayers
promotional
falsehood
roller
perjudic
lone
cosme
dresser
sosten
maurice
irvin
1309
truthfully
10a
##shield
senala
boyce
stiff
organize
guiding
gunter
worry
roper
tm
1170
washed
keeps
lafave
loving
gateway
delusion
recruit
satell
mccord
rebutting
lugo
penna
hawthorne
targeted
1178
displace
1186
cone
renunciation
subter
powerful
racially
remediation
vendees
groceries
##icular
1354
cobr
segregation
presidential
lillian
hastings
stare
sawmill
ferrell
septic
extracted
rug
inner
slapp
screaming
neurosur
corollary
dart
sober
avoids
tulane
mcleod
unos
marketable
restoring
dragged
unsworn
vie
ras
fenced
devote
muscles
pont
##tinger
##eryl
##lu
1138
pronouncements
lujan
millers
1143
texark
##bertson
oaths
osborn
trustworthy
bonis
##add
1196
brace
voltage
texarkana
chapp
wetlands
coronary
destructive
nights
##opal
desirous
nondiscrimin
tillman
gubern
transaccion
1232
lombard
materialmen
designates
threatens
mcghee
##nik
##overn
wedlock
1150
youthful
autoriz
coordinator
ate
novation
scholars
nondisclosure
boz
##pen
expects
wim
##kind
pleased
propound
1160
invalidating
requisition
kuhn
oft
deterrent
hurd
funcionario
outline
clarifying
##esson
1313
ont
abusing
entergy
fritz
procurador
ff
removable
broadway
bard
##26
##was
unica
liquidate
##dl
##structed
sampson
motivos
companionship
coul
refrigerator
chapters
allocating
obscenity
teams
woodard
caselaw
partir
1547
##elsen
kellogg
colony
windshield
brass
directives
##91
demp
mcgowan
##rah
estuv
salutary
graf
fulfilling
##opath
adquir
expeditious
lh
unconscionability
##sea
multif
1346
demotion
cantrell
##acs
##incts
1157
1240
cott
empowers
invariably
finalmente
chim
##enship
eub
tarr
unsett
credence
##ereo
kon
trahan
preside
##velt
easter
headnote
1324
roebuck
cony
exh
stow
inciso
mentioning
peaceful
emil
##vier
slide
commissioned
suppl
miscell
1147
##dos
navar
redund
sincer
cna
##qua
demar
fabricated
##etes
mobley
whitfield
obligaciones
somerset
shadow
irene
coment
##ipper
ingredients
payor
abeyance
achieving
decades
sophisticated
estuvo
subsec
justifiably
pupil
mow
indiv
electorate
thoroughfare
dominio
reinstating
funciones
barney
professions
1254
1193
##nan
automovil
necessitous
desert
japan
##estle
justin
##tially
excl
comput
vacuum
deeply
1401
1183
fannie
adjudicata
harms
melissa
saber
unfitness
1159
nues
##uma
aprop
evasive
ministerio
##xx
spra
crisis
hatcher
rodney
browns
brink
trusted
gund
1165
relieves
##gren
duct
cliente
integration
jessie
dye
unintentional
##aus
sacks
##rac
galloway
finances
calm
actuacion
contratos
gou
ingresos
graded
tesorero
inpatient
##eliver
unanimity
dishonor
alston
1322
crook
preferable
##ujo
sphere
1211
1265
diplo
valdez
vertical
burglaries
pitch
tea
undersc
miscellaneous
kirkland
hathaway
das
##acles
cardiac
bite
sufri
1187
bren
conservative
vigorous
coa
typewritten
##esville
davies
##hanna
database
##nership
arrestee
penc
1217
eliminates
undergone
whitman
materialman
irving
collectible
1169
1245
wynn
cough
defaulting
hensley
jue
depreciated
##uyendo
nonresidents
td
janice
quad
1248
monitored
fau
##eet
##iguiente
ld
undesir
consentimiento
1236
wiretap
blankenship
mcgraw
schuylkill
sitio
manhattan
lm
##umen
##utably
bother
holy
normas
unsuit
excitement
moul
politica
furnishings
transgress
overp
ritter
rc
##elin
tenga
1325
expressive
eliza
miembros
pauperis
wax
##occupied
wiring
1395
burglarized
rated
dane
##innon
dispatched
gabriel
nord
virtual
fec
##ometer
ernst
nulidad
abdo
##aching
1246
##illin
##itting
stationed
rutledge
##etitive
voy
servitudes
lime
##tisan
independiente
elaboration
finch
obligado
dcfs
impairs
jet
pickens
byrne
##nection
heid
legales
fitted
tatum
##acao
discer
maid
inflation
casts
##iosis
knocking
europe
soldiers
gentleman
1088
terrenos
libertad
combus
caroline
##27
squad
1184
misunderstood
misidentif
episc
chill
tli
vib
trout
frente
sumner
##ania
mooney
engle
mckinley
ouster
teamsters
hara
1174
unas
##yo
forrest
stepping
exchanges
blowing
1802
nugatory
decisional
lott
##33
signers
locke
##ugal
jessica
##pco
sufr
cann
imponer
011
1198
enri
pulp
lungs
aac
schiz
contravenes
reprimanded
unforeseen
degr
hecha
arb
1701
pittsburg
##zerne
publisher
1249
aforethought
cordova
bourge
##pect
undisturbed
rober
benz
teller
wireless
ridic
disruptive
tug
formulate
citada
##esy
perpetrators
commentators
knowles
episcopal
affiliates
##uey
slay
barbour
respiratory
ihe
totalidad
impartially
petitory
accomplishing
##agne
ert
leaf
hef
grievant
habitation
bolst
ritchie
shoem
cometido
subdivided
flashing
luzerne
julie
3731
bagley
##vedo
1380
baugh
##makers
salient
candidacy
yellowstone
##66
staples
stit
theirs
usaa
schaefer
##oten
regain
aldrey
magee
oust
anno
apelativo
brackets
germany
##rob
minnie
1139
fran
##orh
1235
fitting
1272
harvest
token
clearer
alta
sacred
emerged
naturalization
youngstown
1241
bunch
windfall
##john
lengths
kinder
actors
mismanagement
##ggers
theresa
##ecio
undermines
##tilage
couched
woodall
redd
poultry
onset
teresa
lunatic
criminals
1247
ruptured
button
carney
salesmen
preempts
##emann
brandt
hiv
##allister
tenement
1253
1834
complement
repossession
charities
##sery
rosenberg
artery
1195
##lake
1191
##atin
disgu
homosexual
sweat
vigente
manipulation
landmark
evelyn
surg
1219
tyr
ecclesias
iz
ellas
evicted
commitments
##ennial
delaney
hyper
defrauding
ney
hendrick
1162
influences
deponent
outs
##istas
strand
##apor
solutions
ruby
dodson
deteriorated
dahl
atroc
rising
inland
supplements
promisee
liquidating
##aks
greenberg
frozen
encumber
1175
reargu
sb
absc
councils
1847
##hel
sui
matt
##guy
ashland
##erve
oaks
laun
renewals
intestacy
##fur
1285
consens
bergeron
##90
judith
conduit
##aguas
declara
1267
fellows
##imeter
eva
sei
hague
trump
designs
##ondo
buckeye
winchester
inmueble
approves
calf
wester
hurley
thigh
tomp
genev
omaha
refunding
##ettered
displaced
##oded
1819
1230
exige
recidivist
castille
##alen
essentials
1237
troubled
bliss
satellite
salem
holcomb
kids
kessler
consigned
rudolph
multiplied
1216
vargas
1233
syndicate
aponte
1190
shells
possessions
juridica
determinable
1274
sheldon
unchallen
thoughts
rita
analisis
monopol
cercla
cornelius
benham
fela
reposed
carrie
expires
quint
##entine
yale
scores
contacting
drafters
mains
sucb
antagonistic
bigelow
solidary
herd
weekends
##eese
computers
stear
##emer
ulterior
expuesto
declaraciones
devolved
dozen
##ongr
informants
1283
##tia
##torily
piper
framing
vasquez
##quette
##vener
seattle
polling
kirkpatrick
gros
nego
1176
doorway
##entemente
pitt
emanating
hable
invade
irrespons
analytical
procesal
##aver
##eo
kne
mcman
comprise
1319
reconsidered
traves
cursory
040
online
triple
mitigated
debit
1156
torbert
hirsch
ses
##ullo
necessitating
hipotecaria
##olly
1185
cheryl
loved
##intosh
1314
overdue
##resion
probar
##knight
whitley
grasp
revival
promotes
intermediary
dence
guay
tpi
urgent
hypert
##urf
abrasion
##isos
deten
wives
devast
014
sola
costly
reset
dewey
benevolent
stones
specialists
counterfeit
nonj
##ipping
1168
alvar
unjustifiable
cornell
mcgrath
consonant
##bilt
groundless
drives
dedic
theoretical
spoliation
overc
remotely
natchito
farmland
nissan
solicitors
##kirk
pb
##istered
swerved
tooth
unborn
1244
expedite
unimproved
erosion
lass
barlow
sharpe
1224
amarillo
fpc
1284
annulling
coins
legislacion
parece
gav
stephanie
1263
lessened
estimation
2000e
jm
offshore
fincas
diem
1295
problematic
turb
koeh
zhb
ayers
mccann
departmental
ecclesiastical
senses
##83
hem
enorm
manifests
lowry
indifferent
abdominal
##hire
cob
bouldin
soldier
vending
##vamente
penalized
exonerated
vr
interprets
##wyn
bened
gwinnett
grows
bourgeois
harness
##67
deudor
leap
easton
##sis
reweigh
mcallister
exhibiting
plow
spark
font
clarks
##odial
##boy
disappearance
reco
bom
deviated
gloves
earnestly
##thington
bark
ultima
tn
boarded
steiner
mildred
friendship
bruton
##quet
werner
sprain
affiliate
##ophren
bilateral
minus
1287
1835
genetic
patria
helicopter
absences
phrased
abrupt
##ounces
technologies
##itates
##ndon
scrup
codefendants
respectiv
wyo
parrafo
replete
1218
recurrence
vom
enlar
unsettled
utiliz
inquest
wedding
##blood
1243
dunham
unlocked
sponsored
##uis
##hound
recant
abroad
##21
elm
proscrib
madden
intense
surveyors
senalo
fusion
schizophren
##uries
viola
downstairs
chatham
entertaining
legion
numb
##ocon
bolt
dispossess
##tividad
consume
summon
contributes
1271
##ristown
hybrid
contributorily
wastes
commutation
##laus
restroom
##boat
mims
unquestioned
deere
incumplimiento
levant
rtkl
tolerated
concomitant
1321
##acional
perfection
wie
elmore
##asses
helm
pronunc
macdon
uncommon
diab
1341
fortiori
##luent
petr
oposicion
##tc
discounts
mh
forwarding
capacidad
incongr
junk
expanding
perjuicio
##atural
##meal
envelop
weinstein
impractical
bate
severable
rachel
adair
dose
advancements
mcpherson
nail
smel
##zak
attainment
editorial
##hor
sustit
excuses
developmental
##istinguishable
unattended
natchitoches
##atos
##allo
ocho
bim
yelled
accessories
bucket
efficiently
lans
persist
cambio
closest
ordenes
rival
roots
duplication
ayala
exigencies
##uited
acreedor
sherry
helper
macintyre
##otherap
mullen
##perform
fink
##acho
humble
undevelop
mero
1192
tendering
hornsby
dism
revel
linking
##inato
1278
congestion
diverse
alcoholism
pronged
nude
poliza
radius
downing
invitees
overla
birch
falcon
accumulate
sara
presupposes
np
addison
laughlin
##antia
negat
spotted
##ais
##eneaux
lexington
luck
thera
cargos
misappropriated
##usory
replev
##andi
adduce
nationality
mccoll
1364
appertain
gunn
gradual
dj
##effer
stripped
vec
centered
perfecting
abrams
copartnership
institucion
gym
naval
drumm
unsigned
quota
1361
##iment
donated
decisis
infraction
##that
##enburg
brum
prescott
millions
cireumstances
sibley
eller
##tieth
descub
inextric
##boards
hopper
worksh
pellees
determino
endow
inhibition
nominee
unmistakably
cape
scattered
tiffany
henson
conclusiones
amicable
060
bowles
cus
cgl
solicita
merid
culpe
undeveloped
malfeasance
1258
blasting
explosive
1242
rapp
circumscribed
##rios
reporters
blew
silicosis
weed
##dep
smoked
bakery
compounded
alleg
1465
brannon
1256
##rists
##icos
entails
overre
007
stereo
##ivious
##rible
wagons
vertebra
##isler
promotions
##lio
paine
copyrigh
doris
coker
cic
##idan
unwillingness
coupling
awak
mp
scal
shook
unobstructed
crude
cron
babcock
malc
##gandt
prosequi
fathers
unst
afl
##hat
braun
indistinguishable
1179
hypothes
ruin
creature
ng
##dro
boil
##elles
bailor
meager
arbitrability
sylvester
alcance
##34
outpatient
costa
willfulness
##ups
cody
calib
1702
##usch
rath
distill
granddaughter
transmitting
edna
smy
1188
dobbs
fost
peticionarios
fetus
alvarado
modifies
dps
scrutinized
bolster
tompkins
shank
##vic
inflex
unitary
bingham
legislate
cascade
pach
ransom
predeceased
laird
traversed
epp
##quier
promising
angelo
ventures
inconsequ
recom
versa
megan
##ptic
##ustodial
parentage
visto
appropriating
voiced
conservators
departing
auxiliary
ide
winding
caguas
##anaugh
figured
consummate
misapplication
1838
overwhelmingly
trasl
permitir
verm
ji
ascribed
arroy
effectuated
1238
elaborated
hiber
transferor
enjoying
consensus
##ansen
simms
destroys
granger
lect
unfettered
amoco
##isha
interrelated
heff
neff
philosophy
misidentification
tradition
pizza
toto
##osity
preserves
##rate
##iak
agnes
deple
##atorium
wilm
ethel
abduction
##iors
homolog
mercedes
comerc
indictable
alp
limestone
franco
dickey
solvency
##gon
magnolia
signification
angles
bullard
sacrifice
suprem
impounded
1317
hornbeck
compensating
080
fullest
sail
billion
pudiera
mower
1275
1382
steamship
lul
wong
1260
roadbed
restruct
pierson
bog
upwards
1501
firefighter
##gating
nearer
yol
impacted
hagan
walden
licensure
reinforced
fic
thurman
1270
familia
nunez
suarez
recibir
##idy
hager
sunset
1371
1307
funk
desemp
1273
movie
disjunctive
flaherty
duran
candy
brewster
dissemination
plas
lanham
coe
tenido
exigency
colleges
cycle
##huana
##oughs
bonuses
whiting
herencia
debidamente
1821
smooth
monuments
despr
##aterrit
amputation
##rae
drains
sundry
tammy
testamento
subordination
scottsdale
callaway
voucher
enemy
##entown
marina
classed
publicos
cooperated
nondiscriminatory
marihuana
niell
britton
elkins
concesion
jumping
conspicuous
forkl
prize
objec
##icker
woodland
1264
races
senalado
hoard
hatfield
flooring
eluc
weygandt
lineal
realidad
1282
##tivos
envisioned
bitch
unclaimed
##itors
extraterrit
##mith
shaped
config
criminality
dilemma
weir
plats
1406
strengthen
mci
certificacion
zer
preparatory
brands
##pas
echo
presuncion
##uebles
roles
peremptorily
##zada
concluyo
##udge
emancipated
michie
corresponde
##arted
1262
fool
decade
dirty
##usk
##enb
incenti
tendencies
vault
mcknight
##armed
006
asum
unchallenged
intrusive
lacy
##89
##elet
inconsequential
lips
##very
vid
scaffold
definitively
concessions
io
##lop
3553
openings
preliminar
sentenciador
##istry
cates
levi
rocky
format
nighttime
coordination
coordinate
adverted
##igue
females
gobern
railing
##teria
##teness
omision
weld
uneth
undesirable
purcell
dismissals
oportun
suitability
gee
##ubon
steff
prescripcion
rite
##bursing
orphan
stov
1268
budge
disallowance
##alde
sawed
##dam
trot
inexc
gand
##ienced
jurada
hemorrhage
asim
##nder
ferris
pall
buses
backward
1320
mutil
lorain
serrano
arroyo
bertha
indisputable
repeals
abridge
subsidy
forgotten
arena
yester
sealing
ocasiones
clem
northampton
afoul
wich
shelf
licencia
hadn
preclusive
1308
realizar
julius
flra
greyhound
disaster
excusing
arec
colbert
usefulness
tarde
emplaz
kahn
atrocious
##river
infringing
unsuitable
vinson
everyday
nicole
##otex
mars
therape
##waite
##econom
hollis
oo
1800
henn
seasonably
jewell
connolly
##grass
relocated
mounted
##pel
dumping
growers
##imp
authored
auctioneer
fant
antenuptial
lifesty
##istible
noncustodial
diagram
hightower
steep
benefitted
garfield
jamison
unoccupied
ounce
spelled
kilg
piecemeal
dab
sider
##usky
amends
starts
cells
defeats
dewitt
yesterday
compli
021
leaning
mcintosh
locks
christy
lb
inviol
irresistible
aught
shower
negated
tib
chased
hibernia
lends
territories
sunsh
refuted
beneficios
mesa
uncomp
magistrates
opel
1327
sewell
colleague
gret
subtle
macdonald
rect
audubon
##uo
##nar
authentication
arceneaux
##cester
##itado
nieves
coates
serg
secures
picket
diagnose
reassessment
ober
acep
thread
##itacion
forsyth
##ulum
spor
exacting
prohibitory
increasingly
1801
unicamente
bie
gail
##street
mang
embodies
baca
pcf
citi
stacy
absurdity
leav
indisputably
argumentative
exonerate
harmonize
shoemaker
neglects
cabell
colt
dictar
tips
##amous
##omac
counseled
chlor
bodine
vogel
digging
valuing
1266
##reading
##olio
1374
concededly
pritchard
##retion
##iams
actuarial
plazo
stadium
##stry
1288
capability
##avors
tennis
extraction
arecibo
nag
agreeable
counsels
docks
avere
leaks
fortune
culture
baseline
sentencias
ecker
fondos
existent
mcgregor
ari
daugherty
flanagan
daylight
sargent
prepayment
needle
chiropractor
1312
crawley
surn
segur
divisible
muller
lil
##bett
fixture
cautious
acknowledgement
infirmities
giant
##akis
unwise
##poon
##fus
1831
##eaux
##wan
enacts
duplicative
stemmed
acred
humacao
1306
intake
monmouth
poe
disposable
crescent
obli
rigorous
shoplifting
salazar
validate
compass
prostit
hendrix
herniated
nal
hinges
intoxicants
shing
brooklyn
anteriores
##brecht
##adder
singh
affordable
claud
collar
insub
establecida
courtesy
##45
greenleaf
paroled
restate
discernible
rech
winning
##acock
chip
moiety
##enshaw
settles
griggs
##sten
obs
obeyed
wcab
swain
punishing
basketball
hag
duf
subsistence
interveners
##soft
nont
huber
halt
misinterpre
##green
045
refinery
jennie
fris
mecan
keenan
traceable
fringe
codification
carib
frederic
neglecting
##urry
pledgee
overseas
cohn
roose
gid
hib
blanco
dmv
plaquemines
rings
clas
sykes
1381
espanol
stovall
planters
youngblood
cripp
direccion
redact
validez
undergoing
scalia
embarrassed
rutland
giff
decisiones
asimismo
sunshine
##ompetitive
necessitates
##building
packet
##otti
legis
bernal
nmra
sprint
indulgence
marketed
objector
##ietta
##broken
bystander
roche
candor
garnishees
deserted
willingly
naz
unethical
mini
lanzinger
encompassing
##opedia
infrequ
santana
ziegler
mackey
bub
##mart
##arring
1286
seduction
triangle
brantley
ships
sulph
inadequately
differentiate
##ubstantial
##urable
rockwell
atencion
conclu
subcomm
precincts
crom
middles
obno
1329
dictara
1837
pover
algunos
punched
queda
intruder
confronting
enriched
pant
rebate
foundations
sliding
jarvis
composing
surgeries
radical
insulting
##ucl
esco
elementos
##uber
##ecen
weights
culminated
##mier
metcalf
pcha
revisit
##wold
unmin
1388
gardens
##new
rouse
vesti
##aje
##rington
ricky
evidential
readiness
obnoxious
##tire
2800
nrcp
affi
evolved
assaulting
##echas
vitality
indico
hopes
##gil
unnatural
obt
heated
maple
analyst
dismisses
incriminate
fca
valle
embry
overth
reargument
ov
##gested
2101
ribs
arouse
##acey
nonexistence
costello
dave
1277
hyster
promptness
reenacted
cys
canton
##37
inici
unbroken
1601
checkpoint
coh
bessie
bribe
1379
fortuit
supremacy
ere
##ologically
pharmaceu
wisely
cruiser
specimen
##version
investing
##walk
##both
##rer
governors
links
canter
kun
alla
breaching
ethnic
explored
enm
dailey
simulated
##emand
mccray
advocated
audited
poverty
##28
compute
expresado
ftca
convincingly
epid
potest
gilmer
entrega
countered
edith
ae
fairfield
harman
##nas
cultural
ensures
ostensible
inextricably
mint
pardons
dong
emancipation
oor
scienti
underwriting
holley
taker
inappropriately
redetermin
##enh
impairments
truj
##osos
comunidad
pars
1712
interviewing
ether
sits
collectors
pagina
sabine
crashed
pneumonia
cds
##ells
fencing
##oski
electroc
bertr
climbing
loft
##iero
penney
dawn
1323
montoya
reassigned
atty
renovation
corre
transamerica
hacerlo
arab
tins
lof
dhhr
subtract
broch
aspir
steady
aiken
concerted
forem
##raved
feasors
advocates
dante
foul
chestnut
emol
enfer
leary
peach
corey
richland
sherwood
##goti
1269
glove
reassignment
disputing
intervino
sosa
coleg
chin
##encio
organs
##better
husbands
sanderson
bn
janitor
guaranteeing
bower
hass
secular
mellon
lightning
admonish
platt
##iee
enclosure
pivotal
malcolm
prepaid
compilation
gmac
mcginnis
eri
doer
retried
potomac
1803
rees
##weiler
vended
##reso
spots
tiie
mechanisms
dempsey
gaz
waterman
##ook
humane
pendleton
awakened
geico
fy
steambo
updated
##44
celebracion
cartwright
carmichael
##leas
errand
##ulse
issuer
egan
effluent
pharmacist
leaking
alegando
tipton
vigilance
##otta
hollingsworth
pools
summarizing
unworthy
commander
middlesex
denny
examinar
nguy
marx
1279
expecting
sis
thomson
brooke
necesaria
ketch
terr
simulation
rosenthal
diabetes
lifestyle
allentown
orig
obste
sustainable
aur
practitioners
1400
walnut
lasc
035
encouragement
paz
tripped
contribu
saint
capture
nullified
##aci
verity
extraterritorial
wheelch
##del
##ules
hydra
percep
delitos
##ilyn
pickering
messenger
##frl
gases
bassett
cen
##edded
langley
unreal
tay
appealability
fles
abundance
yelling
outc
commentaries
celebre
fiel
livelihood
advisor
wider
##vine
nlra
widening
peggy
obscured
magazines
roosevelt
frames
##aldi
rises
lacey
cms
##zas
##enberger
intersecting
gum
##tida
nance
tired
bricks
ourt
##oconiosis
sheridan
jeans
wrecked
estelle
1415
decor
crist
psychiatrists
stob
##ffer
##andard
unskill
feme
voided
1824
desirability
##cb
##usau
chequ
confining
##herent
gleaned
remodeling
purge
marietta
lafour
disaffirm
unreasonableness
dependence
adjudicacion
recycling
1294
actuated
anesthesia
loom
manda
crosswalk
oj
bev
1335
tenured
buttocks
minne
krist
##isy
prisons
undetermined
juridico
disrep
els
##arden
conducive
vanderbilt
cracks
resolv
bruised
oly
seb
medicines
hutton
2778
##wine
seguros
rang
tina
provoke
detin
reputable
dwyer
tir
wrest
boswell
adhesion
server
occupier
aly
dancing
inscrib
##amiliar
carver
1347
dolan
##wca
##isely
##gill
scand
fmc
capt
traders
llegar
strauss
hoboken
flatly
precedential
defiance
lipp
wausau
councilman
pollutant
trujillo
conveyor
bricken
coop
becht
esther
payees
gleason
embodying
commingled
ssa
therapeutic
attracted
ht
cyp
moll
comercial
1334
bozeman
foremost
pint
##mg
bordelon
squares
mph
coco
calvert
##reatment
embody
inferentially
denounced
causas
##ocop
vandal
realtor
flagman
pamphlet
acevedo
1817
rehabilitate
impug
concub
##nery
cutler
stubbs
pencil
infancy
wilbur
glas
eden
monong
surveying
generis
conflicto
catast
albright
equate
samu
cary
subpart
swollen
bowden
craf
mvfrl
thrift
ranges
##uyen
talbot
forman
damn
gilliam
seventeenth
hhs
solve
envelopes
payton
alegado
microsoft
obliter
##emb
bloody
paych
opted
arresto
substandard
##bread
ucl
payer
cita
pathology
overseer
lafourche
esper
sacra
tramite
dutton
depicting
paramed
##lando
##amental
1355
pneumoconiosis
cotter
##arks
alcalde
inexpensive
comprehended
cpa
pause
##chen
crowded
nuestras
bending
compress
ump
##ashed
bowie
gag
##ussion
contemporary
##lander
seasons
broom
locus
##guard
demuestra
illusory
explosives
exten
locker
1362
##uque
4000
contrasted
wip
uniqu
sepul
precede
sciences
gads
defecto
delivers
ejemp
##igler
cheat
##edor
##emper
baking
1259
rosell
1315
deliberating
habitually
7a
models
mclendon
discredited
coext
serb
scher
forehead
cerebral
nt
ortega
bh
noises
stinson
depositary
neurosurgeon
##vinc
##enheimer
genesis
laundering
dover
depose
##efined
1316
##este
negatively
robles
##rollo
subterf
##quiera
raleigh
lance
trato
barcl
insubordin
lasting
unfamiliar
racine
numerical
chel
belcher
##fortune
cognitive
separable
juneau
##eche
geiger
worthington
transm
hopeless
pharmaceutical
triggers
expropriated
scrat
##36
stockton
harts
pts
##ondale
bonnie
denise
hile
tenian
inexcusable
mattress
1825
implant
ist
totalling
##cler
morrissey
vera
evading
##psi
mallory
volition
folio
isabel
numbness
forklift
comprav
ambient
garantia
superficial
##wen
2901
##ierta
siegel
creative
fou
##jor
##jar
housed
engel
curric
inflexible
incomes
lois
georgetown
facilitating
notificada
##itiva
ryder
gus
hispan
capabilities
navajo
sow
codal
outlaw
##ammed
siete
##amey
adicional
bayamon
satter
1348
nonexistent
surmise
##rition
eddy
tumor
fever
infin
iran
molested
lau
luggage
hydraul
mott
artis
unmind
obtainable
steril
formulating
barely
voorh
fha
anted
ivey
##ipple
hilliard
1350
1365
pete
xviii
##avia
rescinding
poisonous
manville
nguyen
remarkable
permiso
slee
composite
scrivener
##athon
unmindful
sequestered
##ondition
villa
##bbins
dejar
imputable
##ensack
regan
headlight
##pring
##aved
##bish
impulse
keene
rupture
##enen
trif
societies
##81
tendra
compraventa
schre
confirmada
laceration
shum
catastroph
reconvened
valer
titular
eure
buc
ero
fitch
manc
ervin
scuff
##indle
doug
interdiction
##economic
durr
misfortune
1337
inclu
backwards
quienes
aider
coats
slater
covert
subdivid
comparecio
ih
negatives
1328
apportioning
jurisprudential
1833
superiors
gladys
solicitando
muss
spaul
helms
embezzled
##ieh
mcs
intercepted
rau
##chem
unite
massive
accredited
interception
presentaron
stig
dib
##itter
##iry
msa
vial
obligate
floating
1289
jeopardize
amelior
ged
lux
meeks
tarrant
ttd
casings
wmata
potatoes
inflated
groves
reprehensible
lutz
boroughs
knives
auc
persuas
mensual
gaining
yeager
myri
##athetic
##upe
cabr
insight
parlia
backd
1692
eason
##dan
confided
mostr
tenemos
song
wen
##asser
##atio
prairie
compra
predator
carpal
bivens
gage
denuncia
generous
harb
mirr
inducements
##blower
gott
rucker
##3d
##gues
2301
identities
blockburger
holbrook
adjudicative
lur
completo
litigio
hedge
alpha
swall
princeton
1827
reemploy
pera
swann
lyle
tional
trimble
referencing
handler
despido
strips
dynamite
shorth
healed
farn
uttering
##front
landed
perjured
cosmetic
sot
relatrix
indiscrimin
unregistered
sided
1342
artifice
supermarket
##sets
##upervised
kilgore
contemplating
spaulding
chitty
burrell
lovell
##zan
denomination
geneva
##ryn
everywhere
##payments
interconnection
paralysis
tongue
dific
10b
cora
muster
crowe
##isd
kohl
bnt
fraser
obviated
peyton
rounds
##uld
##esta
##endale
##linder
veloc
boilers
proportional
gadsden
##igna
passageway
culpepper
importe
daigle
baron
cupp
tens
overch
propelled
unsupervised
reclamaciones
fate
bing
ashe
grim
movables
sres
##oughton
professed
shade
##ancer
penalize
marilyn
coextensive
parliament
defeas
imping
incentives
##gly
plays
thwart
markings
mcmanus
##alson
perils
retirees
seguridad
samuels
relitigation
termite
grange
battered
iba
lain
funcionarios
deserves
##fection
psychotic
capias
pretextual
sallie
flashlight
cypress
quince
armour
absolve
ranger
perfor
redundant
##ansky
capita
regs
avails
cutter
alters
marquez
lowering
moseley
resembl
minneapolis
decisionmaking
unpersuaded
stakes
pedd
sage
disfr
intersections
abetted
remission
jeffries
##alla
##ensities
greenfield
shelley
transient
suic
corporeal
higgin
aquellas
struggled
dereliction
##elton
photocop
##ped
informations
arranging
tangip
impos
manchester
legislador
gunpoint
tomlinson
especificamente
##aritan
misbe
henri
disk
currie
##cast
implaus
inspeccion
sundays
1353
intermed
poorly
bushels
aims
coffey
shorts
roadways
unprot
##icer
pursuits
winch
ringing
repossessed
##umbre
zip
harley
goldsmith
portable
negocios
mers
optim
classifying
confiscation
##power
##rolling
insec
ailment
##rows
joints
1377
2330
unload
notarized
cylinder
deh
insulate
gobernador
delicate
translation
##estine
louisa
divorcio
sandoval
wishing
pregun
stresses
quieted
couples
condon
zam
bex
norms
finishing
avowed
firma
nielsen
##ivel
willow
##monial
backup
rentas
admision
influencing
##amie
teoria
inhuman
##ulado
gale
vene
querellante
wounding
mult
corning
cranch
berkeley
##iton
##phine
appointee
grip
helps
linden
##dia
seab
semen
1339
servid
killer
staffing
docketing
conveniently
bere
1356
pagare
mahoning
zab
contradictions
puedan
ciertos
##ofield
overlapping
ensue
commingling
apoyo
doh
herndon
principios
swab
harmonious
bk
offences
timbers
##bio
woodson
1297
dubois
abbre
offended
usable
eviden
towed
##oi
exert
facsim
unmarked
rains
##mmel
hubert
##gc
downey
cooking
christina
sine
intermittent
gide
nec
mera
##anor
inclosed
lef
cps
1318
mujer
incapacidad
choses
lut
##asy
##loyds
narrowing
obstetr
##arts
pride
##rira
resub
##30
##uh
##kens
judic
negates
jacqu
interposition
bartender
expeditiously
jp
positioned
introduct
indivisible
##titious
badger
innu
harassed
complicity
excavating
nr
spang
gutter
##rise
consiguiente
joa
variously
greenl
detinue
instig
##opathic
cramer
ratepay
1373
specifics
fright
wheelchair
bale
indemnified
posits
dubuque
keefe
cwa
endorsers
##shots
arbitra
dora
expedi
equals
stepmother
nominating
gallatin
##akos
multitude
curbing
hilde
##then
fishery
apolog
badge
spiritual
executives
depraved
curran
illustrations
##uration
haskins
frick
blast
sprague
##alach
anat
blm
footage
walkway
nud
acme
erased
responsable
##aski
lest
declarando
develops
boots
diana
beal
##botham
##lighted
encounters
kraft
fie
ki
discard
gallery
barnard
deaf
sanitation
denno
stays
orthod
lacerations
corroborates
tain
papp
##gis
##angement
gaston
rectify
pauline
obstacles
##lors
##ulator
barrio
##ompanied
sanit
poth
tutors
peacock
edificio
arbitral
menace
connotes
roch
myriad
connie
rutgers
climbed
exiting
breasts
lode
vaccine
grues
dredging
indignities
ding
##74
aroused
drisc
genitals
disgor
pestic
##kas
snider
1368
nursery
dams
abstention
##dings
##tidos
escob
vant
appx
##ahoa
amortiz
##lund
corridor
katrina
cummins
ejecutivo
ith
1375
tenderness
instructor
attenuated
##lton
indorsers
loco
vermilion
handy
mento
observer
maim
patel
carpenters
ackerman
8a
seh
disrupt
arrives
ronnie
##uates
sulphur
farris
dowling
theriot
ape
radiation
bingo
ccc
##opes
ame
##mire
canals
pent
senalar
cheeks
strictness
glance
outfit
##acht
patentee
platted
asesinato
technicians
fragment
resemblance
mattie
diseased
outlining
censure
sibling
rebuild
manifiest
1293
thig
cove
##tran
stepp
curtilage
quieting
bogert
erad
dooley
fdc
##bron
hanks
audits
karl
##tsch
##andole
landis
deliberative
trev
incompat
rescheduled
molina
comprend
recollect
tacitly
ordained
##olas
eak
volumes
retiring
endowment
comprises
assailants
ejected
refrained
infraccion
dropping
frustration
r3
contesto
webber
##uben
guaranties
displays
unaccompanied
maest
limp
journ
stirpes
driscoll
impone
misin
walks
browne
##pack
sally
##ali
##itas
heather
belo
benoit
premier
incurs
1338
##ighton
gideon
cooling
disavow
orl
declarado
##imo
attaining
##burne
aber
##berman
bolts
##auley
repr
##iann
waddell
sincere
highlighted
wiseman
otero
poco
groom
##atario
usages
eminently
lister
introductory
herb
careg
bookkeeping
ciertas
shor
fuere
##oug
eastman
epile
nod
kov
crut
##williams
jorge
validation
martins
subcommit
wooten
anticompetitive
schoen
##eckley
napier
faster
existia
hint
moist
delic
perpetuities
schr
captured
1372
##tzel
apreciacion
treaties
stenographic
dentistry
orientation
roc
udall
hyatt
bash
emit
##ichard
matai
arrington
bled
##orte
livery
##sb
##ulously
magic
lloyds
cables
babys
##lam
aprobada
workforce
apl
##uggs
zan
bolin
olymp
yielding
alr
trag
indicator
##29
masonry
danville
##write
notations
arsen
colleg
bolden
isla
plains
##iland
anad
morality
1363
justifications
happiness
indemnizacion
tarver
barc
annotations
zon
pasch
aboard
carne
ingreso
oats
##tham
dwight
dtpa
prejudices
disbelieve
shan
leis
sco
legislatura
educated
##ittenden
tangipahoa
quest
harden
fashioned
weeds
1357
reput
polar
fares
1360
extremity
indemnitee
inconce
asociacion
ocurrio
alden
terrace
sublet
mcwh
voluntad
detaining
grill
##orsing
preg
incluyendo
dishonored
kemper
seam
vices
##tzer
##witz
petersen
gratuitously
fus
militate
cabe
revolution
equated
descending
hipotecario
enormous
knowledgeable
seasonal
relayed
contractu
1383
##mand
advent
repel
goode
winslow
gn
wanda
pendiente
cuerpo
adea
moratorium
maintainable
##olar
fiance
deeming
1378
##ucio
liberality
booking
1336
swayze
##arb
tray
darkness
nel
##hman
transcription
airp
1349
tuttle
tha
alma
##arte
hutchins
unprotected
grease
conspiring
eucl
##mpa
piles
stain
emphases
poured
appalach
chapel
predominate
progn
alton
clou
substitutes
dyke
shulman
galleg
ousted
##ussen
##pers
abstain
lath
vann
stumb
discovers
meridian
unstable
heher
connelly
contribuyente
##asc
spirits
oakland
huck
promulgating
anual
imperfection
padres
##mie
hasten
benedict
confiscated
##performance
shal
inequality
insulated
##ecki
tenths
unans
lima
##rals
mcclendon
pesos
unconvinc
##foot
adhering
misstatements
stearns
berman
scant
concurrentes
bushes
overfl
##ticip
noteworthy
apparel
ecause
unhapp
##orde
basta
irresponsible
nina
sueld
entailed
projections
packard
##page
##asters
intensity
contraria
tablets
##19
jackie
accusing
alighting
subterfuge
tig
##kamp
vegetation
hadley
desarrollo
monsanto
pacheco
1832
tomas
redhibition
mothers
drummond
##zze
whip
controverting
eureka
morally
parenthe
##iden
defectively
comprador
##erts
##abb
extens
organizing
richter
expunged
enhancing
climb
llego
curriculum
onus
creemos
inclination
##proof
fop
##alley
instrucciones
9a
##55
inatt
1358
anotacion
##cone
##ppel
dutch
coulter
lockett
dowdell
achievement
realities
critically
surname
covenanted
rewrite
prost
mortality
griswold
plun
harriet
1352
ehr
fought
##isher
curtes
participacion
piers
intimately
##udin
elude
referable
dejo
decency
signer
leadership
scrutinize
joyner
invites
autorizacion
lascivious
metros
codemand
denson
cooperating
organizational
##avit
tracking
radico
herron
diagon
pcr
burroughs
nf
pak
param
012
lawfulness
inconceivable
ads
weren
ors
informo
1340
episodes
reverend
extrav
rainey
veces
rochester
pist
slaton
domingue
##ecido
internally
abolition
stroud
shootings
sca
cottage
pryor
oll
plenty
vot
underwear
brat
##hee
##rott
brill
lange
exploded
conjectural
algo
kenny
thigpen
shee
paraphr
egg
nan
bragg
societal
tramm
proscription
curtesy
sedent
##roga
070
procedendo
heflin
lethal
agentes
permittee
escorted
##aire
augustine
output
##eney
deferring
grimm
drained
edn
enumerate
marathon
14a
suitcase
atchison
adventure
mario
loop
inmediat
hindering
innuendo
##jun
shane
sey
trestle
##aghan
mckinnon
sedentary
bless
##xler
##eded
amber
eico
##gor
kathryn
uj
anee
disres
commons
unass
sprinkler
alfa
expedition
radar
bmw
##breadth
thi
impuls
renounced
ion
##inese
pretension
volunteers
##formed
credentials
multifarious
bolstered
##ceived
obiter
##eau
billboard
wendy
dexter
medida
##tsa
psychology
gyn
judiciales
accelerate
cintron
suz
perpetrate
##oman
replies
avert
tjhere
corrigan
compression
numeros
gallegos
##onstr
ston
esch
##arium
caud
administratively
henley
gille
2903
ejercer
carretera
##leary
atender
armas
switches
jeremy
##opa
brann
increment
joiner
lodestar
contenido
refined
insufficiently
ranged
acquiesce
##upport
kicking
nause
##bold
##tox
##anahan
utterances
fashioning
##41
swung
wyeth
lens
##akings
workmanlike
privado
rehear
uccja
comercio
##olls
robins
chairs
abrogation
scruggs
scarborough
sabb
paran
##atters
importation
discriminating
snod
inmedi
cierta
enlarging
eph
gunshots
##caa
busch
warehouseman
hickey
theoretically
journals
merrell
layer
stacey
invoc
caprice
razor
seeds
pregunt
conformance
impeded
wv
overbreadth
givens
dolores
mabel
disloc
countenance
subcommittee
generales
diferencia
##ei
##ummer
salvador
inhabited
hydraulic
hn
##aph
1296
1351
1298
gt
##mus
quig
velaz
ireland
##liss
cortez
needy
lasalle
db
##iewicz
tull
##uthers
nonperformance
travelled
desestimar
locomotives
eail
underpin
stipulating
##ermo
unad
registering
camino
haney
evan
escheat
gramm
manifestations
kenn
reagan
controversial
encontraba
adler
2907
perpetually
ssi
brow
1359
rushing
deviations
munson
hora
tren
holliday
wichita
mckenna
appertaining
##efendant
ordinario
brig
1820
labs
cashing
llevar
##rated
tremend
ramifications
##ping
phy
eleanor
1290
partido
hodg
##hav
##ika
rowley
##rizarry
bruise
splitting
abridged
recha
corbett
recovers
escort
michel
packed
audience
dominguez
navarro
tidal
lawton
brom
##fee
manley
residencia
detector
nunn
oyster
litt
berlin
vigilant
##rane
theme
beef
stric
centro
nuevamente
destitute
##kew
react
##barger
salario
2701
uniformed
zinc
imple
approvals
belts
stacked
penetrated
query
sheila
instructional
1826
facilitated
orchard
soda
regained
standardized
woodbury
crowder
tca
twins
parenthood
siren
finn
sapp
emails
debar
hija
firme
twofold
##ilyzer
emory
fres
impasse
broadest
hacerse
##otros
misconception
evinced
comenz
pullman
entrustment
tencia
chips
unsold
anticipatory
usda
abram
latham
pelig
condone
##ben
condemnees
motu
dfcs
truss
catheter
imputado
kurtz
encuentra
##ofer
harvester
witherspoon
surrendering
rosado
luna
rj
inco
roomm
halfway
cassidy
shorthand
shallow
arbitrable
pretermitting
facsimile
archivo
intimidate
interchangeably
cuad
agnew
waterc
producto
dray
attacker
1806
cancelling
1366
kelsey
1b
tx
steer
decreto
ancestors
piedras
kul
tying
##hot
chinese
imposicion
dada
claire
##43
chew
misfeasance
bier
desper
schum
mortis
congreg
novelty
absolved
##anas
reputed
fortuitous
museum
avould
longsh
1376
worsened
##leson
##icas
certifications
psr
shauck
posey
olin
agencias
causante
pannell
corresponded
evinces
stover
##olt
permite
gertr
reconveyance
reiterating
sauc
malley
1384
jamie
lich
planificacion
descans
bv
menard
ripeness
fruitless
certifica
dl
seran
mccollum
desprende
##iani
inseparable
##fd
madrid
fairchild
wired
##hma
furthers
disregards
bang
banner
##romb
##coe
##itada
asign
haga
susque
inneces
resumption
laboring
participates
subrogee
pillow
sentiment
##80
consignment
peremption
nasd
cuantia
piercing
hinkle
##adic
##essa
fuels
gruesome
quart
carro
certificado
nellie
##76
cullen
yance
breakfast
##isse
##arital
propensities
crouch
2923
retrib
mcwilliams
##arz
daytime
robbing
irizarry
mout
##kell
pk
cauc
stray
gunman
sheds
allerg
pitre
bets
upright
localities
inexperienced
##ppe
stipulates
tubes
maturing
mccaff
mailbox
negatived
realization
watershed
##iological
desac
ricks
provable
virgil
malign
##rogen
elliot
renuncia
portsmouth
matos
crenshaw
esposo
actuaciones
completeness
barren
mchugh
##real
imit
terminus
thayer
seminal
predicates
viet
dotson
##agnon
##ocard
unrealistic
implausible
percy
conservatorship
hypn
bituminous
foret
het
velazquez
shaking
refuge
stobart
bynum
swartz
##raine
troubling
1823
attest
backyard
shocking
metlife
nosotros
queja
caval
asegurado
expelled
usurpation
kod
sba
sujeto
infractions
cial
trim
simons
dit
predicted
childress
clergy
ez
jealous
engagements
ejemplo
cuff
1502
celebrezze
standby
lienholder
echols
xvi
##isto
profound
##belt
inmediatamente
whalen
##antine
extras
nathaniel
hb
drb
sewing
mom
expuestos
recibio
marta
aps
##ilo
boo
savoy
heel
disable
kauff
stella
rebeld
intoxilyzer
consignor
endeavors
redes
contiene
combining
1830
fenner
euclid
##ilia
paraly
chickens
##acic
brisco
coordinated
disadvantages
##ubstanti
displaying
abbrev
puckett
ingers
serviced
steamboat
qdro
titus
mcge
overturning
dobson
##ollo
##zewski
arco
remonstr
##erse
lakewood
3109
romano
reeval
harvesting
heisk
##ovia
##laintiff
aven
lough
##82
corley
dothan
##aried
opm
opens
kot
experimental
symbol
hendrickson
prejudicially
ledbetter
trenchard
shin
schaffer
yields
airways
2506
cfr
campo
ginsburg
misinterpreted
tearing
##arthur
##adilla
misn
manson
criterios
bitter
scholarship
asa
##endorf
celebro
prompting
skidded
compressor
longshor
##ava
supersedes
hubiere
disrespect
leakage
resolvemos
boles
thwarted
neurologist
sme
naught
tand
##ulus
ocupa
troublesome
dozier
duques
predominant
liad
temptation
wooded
hurry
paranoid
ivy
bethel
protesting
bechtel
shocks
billboards
jerk
sancion
intens
audi
envtl
offspring
##inage
gratuity
wd
##jean
aldridge
hindered
forbade
asso
arma
whistleblower
##clerosis
higginbotham
##xel
pasc
hitchcock
offends
polls
revisar
##ifiable
hamlin
vickers
incluir
reconstruct
stiles
1385
wholesome
actuo
lipsc
mundy
importancia
##31
hackensack
aide
insult
imprud
1810
correspondientes
remuner
gesture
##aday
bayer
susquehanna
##omen
heavier
sympathetic
appalachian
##ombs
##ontz
suicidal
##books
mouton
rin
##teries
terrorist
fdcpa
trumb
justo
halluc
worried
hmo
irrevocably
eev
domingo
cory
##idental
severing
turnage
bacter
##enne
entang
lorenzo
validated
pressures
hough
sesion
thanks
1386
silverman
2244
##inished
##asqu
generator
nerves
mug
poner
hayan
ayres
hogar
undercut
foss
##reau
##loth
dupree
deserve
kate
vender
##47
hermanos
##phone
packer
mcnair
chadwick
patri
1811
bulld
##kis
spare
enrique
tally
##ione
bundle
##obil
homeless
protestant
##hawk
caboose
##amaker
tior
##isitive
commentator
ratings
##32
professionally
peso
visibly
killings
kop
marg
respectable
epps
adapt
prognosis
monica
hyman
hesit
##responsive
##cutt
introduces
1404
christie
rushed
##classified
loomis
resold
transferable
tobin
duquesne
##irth
atend
informally
bave
weinberg
faust
steag
westfield
ailments
coon
provee
duplex
byron
phones
unclean
farrar
055
1797
triers
particles
rebeldia
induces
riz
##marks
crowell
criticisms
injections
urgency
larkin
##ifier
shrub
incontest
cigna
1370
savo
choc
##contin
##itia
registers
fues
deq
l5
andrea
brice
noticing
crocker
ordena
unfinished
fragments
lw
sod
severability
##jah
ars
hobson
convicts
bruising
reglamentos
conrail
##istencia
creat
kub
requester
childers
textual
stains
##titudes
sheer
##laine
graduation
fain
comite
wrecker
watt
vivian
coex
decidedly
##anez
2925
doj
clemons
recurridos
emoluments
repa
approvingly
scenarios
nino
meaningfully
faj
psychotherap
indigency
csc
odors
nopd
##otomy
msp
plrb
desah
castan
jarrett
lydia
bladder
exceso
predisposition
kenyon
chilling
uneven
shah
filter
barclay
##activity
oster
terminable
guayama
##ovic
redhibitory
coles
seating
verifying
provost
edu
pest
##ords
davison
dedicate
conserve
parale
ulcer
auburn
furthering
paxton
proteger
vitiated
sams
##iamiento
emo
##parably
inquisition
unsubstanti
rehabilitated
unexpectedly
##outing
kilpatrick
parentis
ordenar
unrepresent
alimentos
apex
archiv
donges
sheeh
considera
kink
acum
clearness
lpra
intemper
roane
perilous
ogle
update
exaggerated
yarbrough
dij
evince
075
presencia
laborde
importing
tolerate
linder
sind
##usd
nova
civilized
slanderous
frazer
acquaintances
reactions
lutheran
nest
contusion
shafer
kie
stans
articulation
dukes
thomason
misbehav
unsubstantiated
bram
uncoll
expediency
ned
nonf
deleter
iirira
slurred
cafeteria
gertrude
■and
llp
hackett
reel
2501
adviser
montal
##rants
eras
corresponds
buffer
kearney
undertakings
demolished
##vette
iad
blackmon
mccabe
rox
3500
humphries
ome
1705
anomaly
protruding
reinvest
mace
##atal
sperm
reclassification
##udo
curtailed
rue
tore
##alie
maher
richey
drawers
ratemaking
salaried
zar
forep
##incy
hayward
1818
contusions
martial
worley
hooker
apprentices
insubstantial
outlay
mcrae
piping
gmc
burst
loyal
resell
examines
marketplace
1804
rowell
palabra
affiants
ratepayers
##ilda
precon
typographical
jaff
blanton
##garten
ventilation
##enck
glynn
defenders
scars
discriminates
diverting
##wester
##itez
mora
grouped
rector
pertinently
402a
celotex
undefined
dene
endured
ceo
dove
titan
natl
##oot
permanente
sylvia
voss
mood
krue
deserving
hispanic
seas
murph
##stall
retiro
##lein
arreg
whatley
ranking
landscaping
tiorari
ingersoll
commonality
steved
indemnitor
vidal
hether
clearest
hudgins
ehb
crain
postage
economical
##copic
overpaid
##sum
##tner
1812
canceling
unintended
##arco
iso
borderline
eakin
gig
##fred
detract
exe
renewing
umpire
##auf
2953
genuinely
sampling
##week
tenders
especifica
##grave
##ifi
lowell
concedio
successions
graphic
perito
excepciones
colliding
calderon
##apol
tactic
blat
elevators
saddle
keg
zapp
elaine
concussion
breeding
forecloses
videotapes
##illar
partida
succeeds
hier
##orr
##aglia
##lined
parkers
valueless
klo
adolph
tracing
aggravator
lori
nueve
lipscomb
##olome
##opathy
greenville
deberes
insubordination
##bird
##arp
pus
lyman
cavity
parson
arrib
meade
problema
eliciting
maroney
##comes
##jacking
packaged
wasted
##ulada
peers
earle
jeopardized
inequity
leavitt
mccart
ajust
feeble
acompan
refine
bock
remainderman
shielded
inventoried
inferable
ordenamiento
contours
faxed
obligates
cambridge
fli
##klin
##log
abnormality
responder
telef
##letown
fasten
imprec
fj
disappointed
pediatric
voyage
##sville
wholesaler
abscond
##bock
belton
smok
##asher
kore
##mine
designing
mandato
goddard
stricter
chamb
conl
fiat
antigu
cracked
##pir
earns
##mploy
disen
myrt
fibers
##var
horner
##fish
fifths
perdida
designations
affections
deleterious
##sette
##gne
##osha
excessively
tidwell
tis
lauder
buie
distributee
infirmary
##andro
adamson
denn
whitting
damp
eggs
##enia
##wayne
017
##kt
knights
guys
murderer
nugent
marker
readings
strenuous
##mming
thefts
issu
johnstone
midst
andrus
barges
propiet
benchmark
csa
indorsements
##bag
thel
notifico
dcmr
##eles
orn
acog
bastardy
benitez
mayoria
aggregated
zell
##agra
##tec
forn
availing
wars
stances
samford
dd
lith
raining
mccain
beavers
##million
poker
##arine
sender
deploy
guild
flush
jewish
evangeline
chaff
packets
abrasions
bunk
mj
obje
##ynes
caa
napole
fajardo
mikell
gte
defen
clover
lak
##aired
2511
amput
erratic
reconoce
cuarto
sheehy
lively
##qs
purity
previamente
inviting
collects
bestowed
touchstone
creed
kopp
alighted
##oskey
##oda
talia
unpre
compensability
mapp
pagado
colonel
establecio
enclosing
##isman
furthered
noncons
intelligible
##istio
##throp
##ointment
diagnoses
encycl
##westerly
nay
zap
stepdaughter
axe
prorroga
pritchett
nails
##rice
grid
cuid
presuming
saul
colomb
##iken
tenet
bloomfield
designee
continuacion
oversee
##tel
##aida
signaled
55d
behr
tau
manifesting
##entz
administers
tableau
##yan
hatred
dumas
trop
estando
voices
intellect
steadily
schizophrenia
valves
##trak
insures
resentenced
waite
##uilt
rour
imagination
unr
trent
##aleb
advert
jacksonville
sunrise
motivating
kue
pits
inicial
municipios
tags
trademarks
ole
1s
abuso
##beau
uncomfort
##aworth
terminals
lazar
acquisitive
ratcliff
misconstrued
wand
recoveries
anticipating
parity
pruebas
lank
guarding
wachovia
signify
##kery
prank
unarmed
regina
presenta
lhwca
habiendose
futility
sizes
mw
hattie
loader
ounc
##mme
hercul
reenact
aesthetic
empresa
branded
tidewater
##ardon
##tite
discounting
inaccuracy
understandably
bann
subtracted
itt
amc
##plex
andres
dismant
decer
irvine
preparations
ein
memories
inject
sandusky
expresion
middletown
izquier
##iu
violators
darling
tav
##loo
evaluar
fsia
rawlings
bexar
hercules
thunder
flower
antibio
dramatically
lillie
publicas
secretly
strikingly
concil
saff
mcgl
olds
rive
buttr
haralson
tatto
asthma
lucky
wca
securely
scaffolding
adeud
arpents
wp
166a
krause
apposite
familial
aso
facultades
##upo
aguadilla
##hether
1709
dyfs
sostuvo
trait
huey
recibido
tratamiento
screws
wimberly
weiner
mather
sheehan
plumber
asbury
opn
myel
comprehension
pellegr
centi
distintas
##iedades
mcmull
axle
gyp
betts
beams
aron
refiled
deprav
##truct
moreland
dowd
evolution
cca
animosity
exor
reverses
1369
3105
bluffs
resembles
unbi
ridg
erty
ptsd
##anes
##store
offsets
##soe
vandalism
prone
elapse
dramatic
unforesee
india
seeming
unconnected
ounces
##tied
existen
##rese
##reth
advises
##ierto
congen
remoteness
tremendous
##inction
sct
indica
comparecencia
olm
minimo
##endas
highlands
freezing
portray
2502
leaders
outlines
inap
acta
custodians
vail
beacon
anus
charts
huston
autorizado
dublin
kes
preju
##iba
partisan
crib
opera
afdc
osw
carved
tms
icy
revocacion
##ango
malloy
ludwig
coupe
mankind
woke
##innell
terri
joh
##46
##asa
logr
##eria
lawmakers
lucero
pooling
dant
##outed
chil
accumulations
cavanaugh
lsu
cindy
hof
acceso
dupre
chappell
unrepresented
lick
##dick
juv
dormit
thorne
tolbert
##ivey
ria
cud
lep
undo
##kesha
disinher
napoleon
mim
stod
algunas
harvard
##cat
correa
especiales
screamed
mccrary
##38
courier
##estab
##queen
4112
##edge
concepcion
hawley
gren
noneconomic
candler
repossess
anytime
highlight
filiation
robison
videos
misbehavior
misstated
annivers
mistreatment
ambrose
fuerza
ramb
sap
noy
referrals
pretence
waukesha
innumer
##bus
determinado
tenuous
infarc
ridley
nder
aport
evict
thorpe
enlisted
citados
mala
tribune
heirship
redfield
illustrating
mcclelland
devolves
heil
##tibility
##fin
##hue
salter
bordering
wanamaker
infamous
switched
coffman
conjugal
functionally
##arty
##ibel
sore
tuck
##edia
##thren
tory
aclar
traspas
orlando
##tico
cleary
gaff
innocently
dubious
wjhere
##heed
johnsons
kohler
lynchburg
hesitancy
##ograms
32a
patio
retrosp
industri
gow
buskirk
sniff
intervenir
grover
sach
kills
outcry
uncomfortable
##illard
contencion
conservancy
tercera
gres
##ombe
viad
##ferro
1495
descrit
unbiased
luce
alienate
neurop
##yal
apache
federated
agua
1794
enquiry
feliciano
mould
##uca
culpa
economica
subordinates
##etto
handing
consejo
hix
##ksburg
upkeep
##cross
summaries
seaf
ds
agenda
reven
corcor
procedia
preemptive
exacerbated
midway
inscription
hardships
plausibly
##aringly
ascension
uch
##versed
caff
renee
1503
factfinding
bip
1700
##zzie
wendell
inman
momentarily
necesarios
eun
##rero
hector
toole
hampered
wilderness
founders
campos
031
pleases
equalize
walling
reval
bachel
ejecut
mcalister
uncertainties
tonn
grinding
limbs
deletion
##mate
##champ
pean
surrep
acusados
wingo
##eon
trous
asbestosis
mencionada
siz
##idden
atrib
correccion
catalog
mcquillin
nil
whence
exprop
silk
sanitarium
oe
##aki
##odified
##bring
futuro
combinations
##unde
holm
mabry
nora
vehiculos
##urface
##atics
orthopedist
##gam
##load
instability
harlow
misses
peco
precepts
salesperson
##ovitz
flooded
##olicited
cushing
stahl
##ousas
1805
2018
felons
reconocido
exculpate
briscoe
##wered
imputing
katie
##miller
valencia
solved
conjun
unsolicited
brutal
bs
manresa
foy
##iqu
##wo
##rimiento
pornographic
ratliff
gestiones
chimney
piling
##perc
representante
##easterly
cotenant
curtailment
##ppa
mooted
props
emmett
mencionado
fraternity
sentenciadora
3701
remittance
crabtree
resen
mccauley
hanley
conocer
uncharged
kav
amtrak
exoneration
coincide
yancey
liis
ime
##rico
parade
##iamos
educate
lockheed
2164
buckner
prerogatives
noche
machin
igualmente
bateman
overreaching
cardo
##zzle
cmty
confesso
reap
##irs
milligan
ppg
vindication
lena
rams
amal
antid
1738
eberhardt
kauffman
##itarian
duckworth
safekeeping
infringes
4b
##onzo
pto
tice
syndic
gann
##nair
omiti
corcoran
colectiv
##regard
dressing
columns
nau
incorp
perdue
bike
sorrell
especifico
inhal
tara
lash
dredge
emphatic
sandwich
bowl
langford
culpabilidad
daley
originate
renounce
constables
##venta
frontier
collegiate
abus
housekeeper
mcnam
considerando
flaws
reversionary
precepto
previo
topics
forz
coy
aplicar
##bean
##leur
##tracts
quid
sint
freedman
adecuada
inviolate
beneficially
haywood
juridical
dn
wink
escrita
snodgrass
daim
cormier
longest
overrules
extrapol
##brey
dess
##bey
incidence
smugg
towel
nivel
oth
tke
unclassified
deduce
camara
remind
mcwhorter
emotions
anniversary
maxey
lovett
mcneill
estudio
writes
brandy
registrant
caterp
sbe
directamente
gilman
godwin
rourke
argent
duenos
051
epstein
##ared
culverts
paroch
locking
darrell
xxx
##gd
loeb
summoning
##isterial
ploy
sometido
mccur
detainee
piled
originals
manufactures
mccaleb
moulton
beall
secund
passages
manhole
desahucio
##myer
relegated
esteem
flew
cancelacion
mantener
opelousas
calloway
anac
mock
subclass
noticeable
rebuilding
bronch
parochial
suite
nonparty
##osph
spaeth
coyle
##minster
knot
argumento
warehouses
instalment
turkey
commendable
landscape
rho
discouraged
steen
downstream
cataly
psychologists
keating
enlightened
arbitraje
moisture
yank
ama
espoused
abolishing
aplicables
##timos
assessable
southland
unquestionable
eaves
denotes
inattention
unforeseeable
tiary
underage
tolerance
tracked
widower
extravag
smiley
renumbered
trader
spivey
spells
bt
jt
devising
halls
schaeffer
misnomer
attic
weighty
delineate
bns
unab
##cloth
hurting
abogacia
quigley
tries
milam
invalidation
uniquely
definitional
baylor
##rado
065
edmonds
inoc
1828
krueger
iris
measurable
2252
reac
canones
audrey
castell
##ritten
bum
##print
emergencies
vindictiveness
backdrop
myrtle
traged
schoolhouse
1441
cyr
budd
dumped
ivan
##61
juana
endure
camacho
carrollton
discusion
stringer
squee
absorbed
mcneal
##llis
arbiter
rearing
evenly
1409
sensation
throws
dysf
##tta
##uenta
chute
dugan
hypertension
accuse
##titud
remainders
generality
intimidating
spal
superintendence
marino
fallacy
biddle
aplica
laver
presley
urb
solicitada
debil
##combe
champagne
085
veterin
caterpillar
coaches
factum
propor
collisions
protestants
##60
misd
enumerating
erom
commrs
unpleas
muniz
eubanks
##yards
clapp
wastewater
oar
sne
##itatively
##pond
cooks
##rigan
incend
colvin
thoracic
consta
eaja
tractors
spreading
varas
retract
##oulos
schwab
rotten
##enga
ammon
1770
experiments
ungu
lucid
immigrant
millard
lynd
##ching
controversias
scrib
pse
tomb
perl
overpayments
haciendo
acquisitions
piedmont
##loe
aldrich
lum
ust
uter
insin
portf
scenic
radicada
trumbull
healy
foresight
fatigue
earm
1717
cowen
##holes
weighted
slides
symptom
mucho
conocida
discerned
clip
##title
operacion
##ewell
1387
##auga
locally
coolidge
compliant
lach
submer
wren
proscribes
gaps
##iford
semb
observable
deriving
blackman
##aiy
##wind
infras
curtain
##asha
slidell
##39
deform
mustang
placer
##prints
speer
lunacy
##cp
contreras
secl
magisterial
faded
interurban
determina
cruise
tud
aval
semester
##40
revising
outward
aggravate
podido
notable
boe
injures
particulares
plywood
abre
abern
definiteness
preponderate
andersen
solucion
construes
technicalities
parlor
periph
nervousness
tragic
1808
revolving
##ocial
deported
mits
posing
andy
decay
someter
sentry
awoke
recantation
##track
quarles
domen
selfish
poderes
mcnamara
hemp
kays
interdict
merriam
a1
cesion
pert
fournet
1403
js
lagr
negativa
housekeeping
zachary
regis
illuminating
##zek
carload
nhtsa
entic
calves
ubic
##ontro
2503
estranged
##vy
##vell
weimer
condominiums
inaccuracies
broadened
slapped
cheese
shewn
mobility
anesthesi
srs
propuesta
shoved
ault
jurist
deficits
electro
scratch
taliaferro
bue
leland
andr
finalized
1509
095
predominantly
pertenec
councilmen
weaker
##aug
friction
hillside
foreperson
coherent
trifling
supper
penins
alegada
transitory
shaken
amplia
090
unimpe
unhappy
goin
stup
auton
prestamo
hwy
yi
##aming
dugas
distintos
colegio
dss
##igs
##osky
aduc
hepat
##trick
veamos
brethren
regal
settings
divergent
rasm
##utter
amster
cincuenta
barricade
antis
unpr
guerra
candidly
rv
constructors
selma
##had
sanctity
revenge
ashton
artificially
plausibility
bearden
unanswered
##asey
probado
effectuating
raines
preventive
churchill
descubrimiento
wert
herald
franchisee
recidivism
bjr
caf
blush
demonstrative
maggie
bands
resum
legislator
5739
ralston
marian
detall
morphine
worldwide
keros
culminating
importante
ochs
##inets
westward
waterloo
northeastern
speeds
kenney
041
disfavored
perme
entice
satisfacer
ratios
faults
terroristic
estipulacion
anto
avoy
alpine
lax
##itivity
specie
workable
abettor
emitted
##omic
patten
harleys
defends
##istan
munf
hamb
rant
##ecks
##storm
brogan
perpetuity
dysfunction
restructuring
ror
heal
myocard
educacion
noxious
plra
inhibit
yam
##kw
evidente
exemplified
refinancing
##astr
##ented
##osi
##indler
interrogate
minimized
selectmen
stalled
wab
crazy
nye
celebrado
spendth
cuevas
kerosene
concisely
seguido
rumors
edmondson
temer
pia
##utely
decent
flath
agitated
hasty
##ibur
calidad
foote
disponer
mony
goodwyn
avondale
fallo
rowan
adicionales
incorporeal
##inck
executes
2307
hoping
matrimony
waldrop
nrd
weaken
necesariamente
sedg
##icke
bobb
leje
slipping
stoop
steagall
##rimp
evaluacion
2743
mirrors
interactions
honeywell
tado
attends
moser
constituents
hone
##train
mayes
canse
portage
alegados
casas
##andoah
trespasses
reapportion
evangel
anymore
desoto
announces
lamps
reiterates
arriba
soap
gilch
citibank
##adia
008
burner
corruptly
jacqueline
strategies
hydroc
deven
##endose
payers
illiter
tampered
secondarily
felder
studio
burnham
kingdom
reconocimiento
unintentionally
##has
hiciera
bertrand
bifurcation
optometr
correo
fot
grun
combustion
##68
bellsouth
unpleasant
huss
grier
cady
##dr
##ids
merchantability
fuse
inciner
procession
1504
actuar
thickness
shenandoah
kris
gestures
reluctantly
rags
wilmington
gue
dissipated
stagg
overthrow
mamm
matches
liked
illnesses
##ecimiento
2897
reparation
vantage
infrastruct
bib
1799
dentists
supplant
abernathy
inured
##aime
mixing
screens
transcurrido
retiree
cheney
o£
overview
testa
1391
multiplying
lejeune
##63
crank
accommodated
spendthrift
voto
contemptuous
acordo
parlance
anniston
inven
##icki
savoie
jug
roommate
recus
##encumbered
markedly
kass
##aut
##ivor
newsome
baseless
expunge
##zyn
sof
oportunamente
wang
##vall
topped
dispuso
obras
##bacher
entendemos
##42
##thier
accede
##62
hargrove
dickens
psa
regimen
holtz
jailer
1447
##iller
abrog
hypothec
patronage
whittington
stool
letr
liab
runoff
guad
milner
henning
cambria
addict
periodical
morg
wilhel
pronouncing
vine
lag
##anders
##breath
032
angus
pulley
noventa
struckmeyer
kunk
mpd
excepto
1405
##his
thie
masturb
retrospectively
tio
suficientes
haver
dag
atwood
calif
hoist
youths
wholesalers
flesh
passport
adqui
##gmann
reall
equipo
lup
suv
quaker
##noy
[...]
